{
  "version": "1.0",
  "truncation": null,
  "padding": {
    "strategy": "BatchLongest",
    "direction": "Right",
    "pad_to_multiple_of": null,
    "pad_id": 3,
    "pad_type_id": 0,
    "pad_token": "[PAD]"
  },
  "added_tokens": [
    {
      "id": 0,
      "content": "[UNK]",
      "single_word": false,
      "lstrip": false,
      "rstrip": false,
      "normalized": false,
      "special": true
    },
    {
      "id": 1,
      "content": "[CLS]",
      "single_word": false,
      "lstrip": false,
      "rstrip": false,
      "normalized": false,
      "special": true
    },
    {
      "id": 2,
      "content": "[SEP]",
      "single_word": false,
      "lstrip": false,
      "rstrip": false,
      "normalized": false,
      "special": true
    },
    {
      "id": 3,
      "content": "[PAD]",
      "single_word": false,
      "lstrip": false,
      "rstrip": false,
      "normalized": false,
      "special": true
    },
    {
      "id": 4,
      "content": "[MASK]",
      "single_word": false,
      "lstrip": false,
      "rstrip": false,
      "normalized": false,
      "special": true
    }
  ],
  "normalizer": null,
  "pre_tokenizer": {
    "type": "WhitespaceSplit"
  },
  "post_processor": null,
  "decoder": null,
  "model": {
    "type": "WordPiece",
    "unk_token": "[UNK]",
    "continuing_subword_prefix": "##",
    "max_input_chars_per_word": 100,
    "vocab": {
      "[UNK]": 0,
      "[CLS]": 1,
      "[SEP]": 2,
      "[PAD]": 3,
      "[MASK]": 4,
      "!": 5,
      "$": 6,
      "&": 7,
      "'": 8,
      "(": 9,
      ")": 10,
      "*": 11,
      "+": 12,
      ",": 13,
      "-": 14,
      ".": 15,
      "/": 16,
      "0": 17,
      "1": 18,
      "2": 19,
      "3": 20,
      "4": 21,
      "5": 22,
      "6": 23,
      "7": 24,
      "8": 25,
      "9": 26,
      ":": 27,
      "?": 28,
      "A": 29,
      "B": 30,
      "C": 31,
      "D": 32,
      "E": 33,
      "F": 34,
      "G": 35,
      "H": 36,
      "I": 37,
      "J": 38,
      "K": 39,
      "L": 40,
      "M": 41,
      "N": 42,
      "O": 43,
      "P": 44,
      "Q": 45,
      "R": 46,
      "S": 47,
      "T": 48,
      "U": 49,
      "V": 50,
      "W": 51,
      "X": 52,
      "Y": 53,
      "Z": 54,
      "[": 55,
      "]": 56,
      "a": 57,
      "b": 58,
      "c": 59,
      "d": 60,
      "e": 61,
      "f": 62,
      "g": 63,
      "h": 64,
      "i": 65,
      "j": 66,
      "k": 67,
      "l": 68,
      "m": 69,
      "n": 70,
      "o": 71,
      "p": 72,
      "q": 73,
      "r": 74,
      "s": 75,
      "t": 76,
      "u": 77,
      "v": 78,
      "w": 79,
      "x": 80,
      "y": 81,
      "z": 82,
      "°": 83,
      "à": 84,
      "é": 85,
      "ā": 86,
      "Ō": 87,
      "ō": 88,
      "ū": 89,
      "–": 90,
      "##u": 91,
      "##n": 92,
      "##j": 93,
      "##i": 94,
      "##o": 95,
      "##t": 96,
      "##s": 97,
      "##z": 98,
      "##e": 99,
      "##!": 100,
      "##m": 101,
      "##:": 102,
      "##h": 103,
      "##a": 104,
      "##p": 105,
      "##d": 106,
      "##l": 107,
      "##y": 108,
      "##r": 109,
      "##-": 110,
      "##k": 111,
      "##,": 112,
      "##c": 113,
      "##g": 114,
      "##D": 115,
      "##6": 116,
      "##b": 117,
      "##J": 118,
      "##P": 119,
      "##A": 120,
      "##L": 121,
      "##ū": 122,
      "##v": 123,
      "##'": 124,
      "##S": 125,
      "##w": 126,
      "##I": 127,
      "##x": 128,
      "##f": 129,
      "##ō": 130,
      "##8": 131,
      "##9": 132,
      "##H": 133,
      "##2": 134,
      "##3": 135,
      "##C": 136,
      "##.": 137,
      "##q": 138,
      "##V": 139,
      "##G": 140,
      "##)": 141,
      "##B": 142,
      "##F": 143,
      "##R": 144,
      "##[": 145,
      "##]": 146,
      "##T": 147,
      "##M": 148,
      "##0": 149,
      "##1": 150,
      "##7": 151,
      "##4": 152,
      "##N": 153,
      "##K": 154,
      "##+": 155,
      "##?": 156,
      "##W": 157,
      "##Q": 158,
      "##/": 159,
      "##é": 160,
      "##O": 161,
      "##à": 162,
      "##5": 163,
      "##ā": 164,
      "##Y": 165,
      "##U": 166,
      "##E": 167,
      "##°": 168,
      "##Z": 169,
      "##*": 170,
      "##$": 171,
      "##en": 172,
      "##er": 173,
      "##an": 174,
      "##on": 175,
      "##in": 176,
      "##ar": 177,
      "##JP": 178,
      "##ou": 179,
      "##am": 180,
      "no": 181,
      "##al": 182,
      "##he": 183,
      "##or": 184,
      "##at": 185,
      "##es": 186,
      "##ai": 187,
      "##hi": 188,
      "##ku": 189,
      "##as": 190,
      "##et": 191,
      "##ac": 192,
      "##ag": 193,
      "The": 194,
      "##su": 195,
      "##un": 196,
      "##le": 197,
      "##ic": 198,
      "II": 199,
      "##ur": 200,
      "##ei": 201,
      "of": 202,
      "##ad": 203,
      "##ki": 204,
      "##ro": 205,
      "St": 206,
      "##ing": 207,
      "##all": 208,
      "##ol": 209,
      "##ak": 210,
      "##om": 211,
      "##ri": 212,
      "##us": 213,
      "##ig": 214,
      "##ter": 215,
      "##re": 216,
      "##il": 217,
      "##it": 218,
      "Sh": 219,
      "##is": 220,
      "##aku": 221,
      "Ch": 222,
      "##'s": 223,
      "Dr": 224,
      "##ion": 225,
      "##ent": 226,
      "##and": 227,
      "##uu": 228,
      "##oku": 229,
      "##per": 230,
      "the": 231,
      "##id": 232,
      "##ot": 233,
      "##ow": 234,
      "##igh": 235,
      "Sp": 236,
      "Su": 237,
      "##ec": 238,
      "##ens": 239,
      "##ari": 240,
      "##etsu": 241,
      "##agon": 242,
      "##est": 243,
      "Dragon": 244,
      "##im": 245,
      "##os": 246,
      "##oc": 247,
      "##ge": 248,
      "Dai": 249,
      "Fam": 250,
      "##ld": 251,
      "##ken": 252,
      "Super": 253,
      "War": 254,
      "Ad": 255,
      "##ob": 256,
      "##um": 257,
      "##ra": 258,
      "##ball": 259,
      "##op": 260,
      "Adv": 261,
      "##ir": 262,
      "##ant": 263,
      "##ch": 264,
      "##entur": 265,
      "Nin": 266,
      "##ja": 267,
      "##yuu": 268,
      "Pro": 269,
      "##ke": 270,
      "##ame": 271,
      "##ight": 272,
      "Bas": 273,
      "Ma": 274,
      "Wor": 275,
      "##tle": 276,
      "##den": 277,
      "Adventur": 278,
      "##sen": 279,
      "##PA": 280,
      "##ack": 281,
      "World": 282,
      "##PAL": 283,
      "##nd": 284,
      "##sh": 285,
      "##em": 286,
      "##ce": 287,
      "II:": 288,
      "##ily": 289,
      "Ninja": 290,
      "##ble": 291,
      "##ut": 292,
      "##ok": 293,
      "##!!": 294,
      "##ay": 295,
      "##ero": 296,
      "Bl": 297,
      "##jin": 298,
      "##od": 299,
      "##ek": 300,
      "##eg": 301,
      "##man": 302,
      "##atsu": 303,
      "III": 304,
      "Family": 305,
      "Qu": 306,
      "Star": 307,
      "Bat": 308,
      "Mon": 309,
      "San": 310,
      "##ab": 311,
      "Shi": 312,
      "##shi": 313,
      "##ed": 314,
      "##el": 315,
      "##ky": 316,
      "##ers": 317,
      "##th": 318,
      "Cl": 319,
      "Dens": 320,
      "Gun": 321,
      "##og": 322,
      "##e:": 323,
      "##ap": 324,
      "##ong": 325,
      "##ach": 326,
      "Densetsu": 327,
      "Kid": 328,
      "Man": 329,
      "Mei": 330,
      "##ard": 331,
      "Is": 332,
      "##ace": 333,
      "##rior": 334,
      "Ar": 335,
      "Game": 336,
      "Sen": 337,
      "in": 338,
      "##s:": 339,
      "##land": 340,
      "##ry": 341,
      "Warrior": 342,
      "'9": 343,
      "##ub": 344,
      "##ji": 345,
      "##ie": 346,
      "##aru": 347,
      "Shin": 348,
      "Base": 349,
      "De": 350,
      "For": 351,
      "Ten": 352,
      "to": 353,
      "##ta": 354,
      "##ma": 355,
      "##end": 356,
      "##art": 357,
      "##ock": 358,
      "Baseball": 359,
      "Ball": 360,
      "Cas": 361,
      "Gol": 362,
      "and": 363,
      "##iz": 364,
      "##ll": 365,
      "##enge": 366,
      "##age": 367,
      "##adi": 368,
      "##ect": 369,
      "##key": 370,
      "Quest": 371,
      "2:": 372,
      "Bo": 373,
      "Dou": 374,
      "Ge": 375,
      "King": 376,
      "Sens": 377,
      "Te": 378,
      "Yak": 379,
      "##ue": 380,
      "##iv": 381,
      "##te": 382,
      "##tl": 383,
      "##ster": 384,
      "##go": 385,
      "##amp": 386,
      "##ade": 387,
      "Mah": 388,
      "Adventure": 389,
      "Adventures": 390,
      "Battle": 391,
      "Go": 392,
      "Ky": 393,
      "Mag": 394,
      "Ul": 395,
      "##st": 396,
      "##ang": 397,
      "##ashi": 398,
      "##ill": 399,
      "III:": 400,
      "Yakyuu": 401,
      "Ult": 402,
      "Chi": 403,
      "Gai": 404,
      "Hero": 405,
      "Ji": 406,
      "##ud": 407,
      "##ool": 408,
      "##dam": 409,
      "##ketsu": 410,
      "##gi": 411,
      "##ana": 412,
      "##ouk": 413,
      "Stre": 414,
      "Gaiden": 415,
      "Street": 416,
      "Con": 417,
      "Fight": 418,
      "In": 419,
      "Mo": 420,
      "Pac": 421,
      "SD": 422,
      "##jong": 423,
      "##sei": 424,
      "##a:": 425,
      "##aw": 426,
      "##ber": 427,
      "##er:": 428,
      "##ash": 429,
      "##own": 430,
      "##ighter": 431,
      "##ario": 432,
      "Island": 433,
      "Mahjong": 434,
      "Magic": 435,
      "An": 436,
      "Fighter": 437,
      "Kar": 438,
      "Land": 439,
      "Leg": 440,
      "Pl": 441,
      "Rob": 442,
      "Sai": 443,
      "Tai": 444,
      "Tur": 445,
      "##ul": 446,
      "##to": 447,
      "##s.": 448,
      "##mo": 449,
      "##az": 450,
      "##pp": 451,
      "##ord": 452,
      "##ation": 453,
      "Champ": 454,
      "Space": 455,
      "##oshi": 456,
      "Wars": 457,
      "##rain": 458,
      "Warriors": 459,
      "Am": 460,
      "Bu": 461,
      "Cap": 462,
      "Don": 463,
      "Hy": 464,
      "Ken": 465,
      "Kai": 466,
      "Kun": 467,
      "Mis": 468,
      "Rock": 469,
      "Tak": 470,
      "##ik": 471,
      "##oad": 472,
      "##ey": 473,
      "##ev": 474,
      "##der": 475,
      "##ling": 476,
      "##ate": 477,
      "##ator": 478,
      "##atari": 479,
      "##ura": 480,
      "##akush": 481,
      "Chall": 482,
      "##occ": 483,
      "Monog": 484,
      "##kyoku": 485,
      "Gundam": 486,
      "Golf": 487,
      "Geki": 488,
      "Monogatari": 489,
      "Fl": 490,
      "Ik": 491,
      "Kei": 492,
      "Met": 493,
      "Mut": 494,
      "Ne": 495,
      "Nek": 496,
      "On": 497,
      "Rac": 498,
      "Sol": 499,
      "Satsu": 500,
      "To": 501,
      "Th": 502,
      "Tr": 503,
      "Tou": 504,
      "Tat": 505,
      "Top": 506,
      "Train": 507,
      "Wr": 508,
      "##jou": 509,
      "##ia": 510,
      "##son": 511,
      "##bou": 512,
      "##00": 513,
      "##ond": 514,
      "##are": 515,
      "##ous": 516,
      "##ami": 517,
      "##ast": 518,
      "##aster": 519,
      "##unge": 520,
      "##ick": 521,
      "Stadi": 522,
      "##akai": 523,
      "##ity": 524,
      "Dais": 525,
      "##emon": 526,
      "##ship": 527,
      "Club": 528,
      "Senshi": 529,
      "##tles": 530,
      "Legend": 531,
      "Champion": 532,
      "Challenge": 533,
      "Mutant": 534,
      "Stadium": 535,
      "'n": 536,
      "2JP": 537,
      "Al": 538,
      "Cr": 539,
      "Du": 540,
      "Ex": 541,
      "Gre": 542,
      "Ki": 543,
      "My": 544,
      "Mario": 545,
      "Sc": 546,
      "Sei": 547,
      "Socc": 548,
      "##io": 549,
      "##sion": 550,
      "##eJP": 551,
      "##aJP": 552,
      "##yu": 553,
      "##-K": 554,
      "##ck": 555,
      "##goku": 556,
      "##bo": 557,
      "##ōken": 558,
      "##ance": 559,
      "##ushi": 560,
      "Shou": 561,
      "##akusen": 562,
      "##ower": 563,
      "##ost": 564,
      "Senki": 565,
      "Jiken": 566,
      "Pachi": 567,
      "Nekketsu": 568,
      "Satsujin": 569,
      "Trainer:": 570,
      "Wrest": 571,
      "Daisakusen": 572,
      "Bro": 573,
      "Com": 574,
      "City": 575,
      "Do": 576,
      "Dre": 577,
      "Dunge": 578,
      "Fin": 579,
      "Fant": 580,
      "Gy": 581,
      "Gr": 582,
      "Gen": 583,
      "Hun": 584,
      "Igo": 585,
      "Jo": 586,
      "Meg": 587,
      "Par": 588,
      "Power": 589,
      "Res": 590,
      "Sec": 591,
      "Tsu": 592,
      "Wiz": 593,
      "##ial": 594,
      "##ire": 595,
      "##oot": 596,
      "##her": 597,
      "##ron": 598,
      "##rin": 599,
      "##kai": 600,
      "##ct": 601,
      "##chi": 602,
      "##by": 603,
      "##enage": 604,
      "##ine": 605,
      "##ass": 606,
      "##aga": 607,
      "##icom": 608,
      "##ake": 609,
      "##ush": 610,
      "##ide": 611,
      "Famicom": 612,
      "Monster": 613,
      "##tain": 614,
      "Castle": 615,
      "Double": 616,
      "Teenage": 617,
      "Ultim": 618,
      "Moero": 619,
      "Turtles": 620,
      "Captain": 621,
      "New": 622,
      "Championship": 623,
      "Soccer": 624,
      "Dream": 625,
      "Dungeon": 626,
      "Wizard": 627,
      "'8": 628,
      "At": 629,
      "Fu": 630,
      "Gan": 631,
      "Gal": 632,
      "Gaku": 633,
      "His": 634,
      "Ind": 635,
      "Kn": 636,
      "Le": 637,
      "Last": 638,
      "Me": 639,
      "Mic": 640,
      "Ou": 641,
      "Sch": 642,
      "Tom": 643,
      "Tec": 644,
      "Tim": 645,
      "Un": 646,
      "##up": 647,
      "##jō": 648,
      "##ian": 649,
      "##o:": 650,
      "##oJP": 651,
      "##oid": 652,
      "##ss": 653,
      "##av": 654,
      "##ly": 655,
      "##you": 656,
      "##ru": 657,
      "##r.": 658,
      "##ram": 659,
      "##ko": 660,
      "##kan": 661,
      "##koku": 662,
      "##eric": 663,
      "##ones": 664,
      "##ark": 665,
      "##ort": 666,
      "##ess": 667,
      "##adow": 668,
      "##ris": 669,
      "Shadow": 670,
      "Spy": 671,
      "Spec": 672,
      "Force": 673,
      "Play": 674,
      "Americ": 675,
      "Metal": 676,
      "Tatakai": 677,
      "##-Kun": 678,
      "Shougi": 679,
      "Final": 680,
      "Fantas": 681,
      "Moero!!": 682,
      "Knight": 683,
      "School": 684,
      "Tecmo": 685,
      "Special": 686,
      "Aku": 687,
      "Best": 688,
      "Car": 689,
      "Cup": 690,
      "Gh": 691,
      "Gam": 692,
      "Goku": 693,
      "Jin": 694,
      "Kong": 695,
      "Lit": 696,
      "Min": 697,
      "Mir": 698,
      "Mach": 699,
      "Master": 700,
      "Naz": 701,
      "Pu": 702,
      "Part": 703,
      "Prin": 704,
      "Se": 705,
      "Sw": 706,
      "Sil": 707,
      "Ter": 708,
      "Yum": 709,
      "vs.": 710,
      "##nen": 711,
      "##nis": 712,
      "##ject": 713,
      "##if": 714,
      "##ood": 715,
      "##tou": 716,
      "##san": 717,
      "##ha": 718,
      "##han": 719,
      "##aj": 720,
      "##aki": 721,
      "##ler": 722,
      "##yn": 723,
      "##y:": 724,
      "##yan": 725,
      "##ret": 726,
      "##-P": 727,
      "##-S": 728,
      "##ka": 729,
      "##ket": 730,
      "##vil": 731,
      "##win": 732,
      "##Man": 733,
      "##eru": 734,
      "##one": 735,
      "##ino": 736,
      "##int": 737,
      "##iny": 738,
      "##ora": 739,
      "##atach": 740,
      "##kun": 741,
      "##ase": 742,
      "##ague": 743,
      "##unn": 744,
      "IIJP": 745,
      "Stor": 746,
      "##uster": 747,
      "Daibou": 748,
      "Basket": 749,
      "Sans": 750,
      "Class": 751,
      "Kids": 752,
      "Meijin": 753,
      "'92": 754,
      "Shinan": 755,
      "Tennis": 756,
      "Ikari": 757,
      "Great": 758,
      "Wrestling": 759,
      "Gakuen": 760,
      "Little": 761,
      "Daibouken": 762,
      "(D": 763,
      "Be": 764,
      "Bom": 765,
      "Bre": 766,
      "Bow": 767,
      "Bir": 768,
      "Bōken": 769,
      "Dest": 770,
      "Dyn": 771,
      "Em": 772,
      "El": 773,
      "Fire": 774,
      "Foot": 775,
      "Hon": 776,
      "Hol": 777,
      "Hir": 778,
      "IV": 779,
      "Jum": 780,
      "Jr.": 781,
      "Kag": 782,
      "Kit": 783,
      "Kyuu": 784,
      "Mad": 785,
      "Maru": 786,
      "NH": 787,
      "Nen": 788,
      "Ra": 789,
      "Race": 790,
      "Road": 791,
      "Rev": 792,
      "Sn": 793,
      "Sl": 794,
      "Sim": 795,
      "Tan": 796,
      "Twin": 797,
      "Vol": 798,
      "Wat": 799,
      "Yab": 800,
      "Zen": 801,
      "on": 802,
      "##niv": 803,
      "##ies": 804,
      "##oo": 805,
      "##tack": 806,
      "##e]": 807,
      "##mei": 808,
      "##mand": 809,
      "##ah": 810,
      "##ax": 811,
      "##rn": 812,
      "##-1": 813,
      "##gs": 814,
      "##ban": 815,
      "##bare": 816,
      "##ver": 817,
      "##ff": 818,
      "##qu": 819,
      "##[e]": 820,
      "##enJP": 821,
      "##arth": 822,
      "##out": 823,
      "##acul": 824,
      "##ics": 825,
      "##urn": 826,
      "Stri": 827,
      "##ingen": 828,
      "##ally": 829,
      "##ition": 830,
      "##ista": 831,
      "Chō": 832,
      "Chou": 833,
      "Dr.": 834,
      "##ider": 835,
      "##ockey": 836,
      "Famista": 837,
      "##obun": 838,
      "Project": 839,
      "##utsu": 840,
      "##oko": 841,
      "##ode": 842,
      "##eka": 843,
      "Sansu": 844,
      "##ell": 845,
      "##apon": 846,
      "DensetsuJP": 847,
      "##ield": 848,
      "Street:": 849,
      "Fighting": 850,
      "Donkey": 851,
      "Mission": 852,
      "Rockman": 853,
      "Duck": 854,
      "Myster": 855,
      "Mega": 856,
      "Resc": 857,
      "Secret": 858,
      "##ction": 859,
      "Attack": 860,
      "Ganbare": 861,
      "Time": 862,
      "Fantasy": 863,
      "Akuma": 864,
      "Ghost": 865,
      "Yume": 866,
      "##atach)": 867,
      "Sansū": 868,
      "(Datach)": 869,
      "Kyuukyoku": 870,
      "NHK": 871,
      "Revenge": 872,
      "19": 873,
      "13": 874,
      "3:": 875,
      "Air": 876,
      "Action": 877,
      "Ban": 878,
      "Bar": 879,
      "Bou": 880,
      "Bad": 881,
      "Bob": 882,
      "Bub": 883,
      "Bakush": 884,
      "Ca": 885,
      "Cy": 886,
      "Cos": 887,
      "Cra": 888,
      "Cir": 889,
      "Dig": 890,
      "Dod": 891,
      "Down": 892,
      "Dark": 893,
      "Dora": 894,
      "Ed": 895,
      "Earth": 896,
      "Fuu": 897,
      "F-1": 898,
      "Field": 899,
      "Ho": 900,
      "He": 901,
      "Hak": 902,
      "Hom": 903,
      "Hari": 904,
      "Hockey": 905,
      "Jack": 906,
      "Jones": 907,
      "Kam": 908,
      "Kab": 909,
      "Lol": 910,
      "Mus": 911,
      "Mit": 912,
      "Ni": 913,
      "Nan": 914,
      "Night": 915,
      "Nobun": 916,
      "Ot": 917,
      "Pin": 918,
      "Pal": 919,
      "Pun": 920,
      "Ren": 921,
      "Rai": 922,
      "Ret": 923,
      "Rad": 924,
      "Rol": 925,
      "Rally": 926,
      "Rider": 927,
      "Ses": 928,
      "Sur": 929,
      "Tet": 930,
      "Tre": 931,
      "Wan": 932,
      "Win": 933,
      "Yoshi": 934,
      "for": 935,
      "##ip": 936,
      "##ix": 937,
      "##iJP": 938,
      "##iana": 939,
      "##of": 940,
      "##ty": 941,
      "##ee": 942,
      "##eal": 943,
      "##mon": 944,
      "##ao": 945,
      "##aos": 946,
      "##lin": 947,
      "##yo": 948,
      "##yū": 949,
      "##ric": 950,
      "##-O": 951,
      "##-nen": 952,
      "##-kun": 953,
      "##kyuu": 954,
      "##ger": 955,
      "##xing": 956,
      "##C.": 957,
      "##.C.": 958,
      "##erJP": 959,
      "##an's": 960,
      "##on's": 961,
      "##in'": 962,
      "##ara": 963,
      "##ary": 964,
      "##arou": 965,
      "##amaru": 966,
      "##ald": 967,
      "##ato": 968,
      "##es:": 969,
      "##eshi": 970,
      "##ett": 971,
      "##ette": 972,
      "##under": 973,
      "##ley": 974,
      "##kiri": 975,
      "##ross": 976,
      "##olf": 977,
      "##red": 978,
      "##ite": 979,
      "##ishi": 980,
      "Chuu": 981,
      "Dracul": 982,
      "Sport": 983,
      "Dragons:": 984,
      "##imm": 985,
      "##ima": 986,
      "##kenden": 987,
      "##opp": 988,
      "Advance": 989,
      "##antei": 990,
      "##shou": 991,
      "##!!JP": 992,
      "Black": 993,
      "Quiz": 994,
      "Shiro": 995,
      "Fort": 996,
      "##ector": 997,
      "Boxing": 998,
      "Team": 999,
      "Goal": 1000,
      "##anger": 1001,
      "Ultram": 1002,
      "##oukou": 1003,
      "Gaiden:": 1004,
      "##awa": 1005,
      "Robot": 1006,
      "Keisan": 1007,
      "Racing": 1008,
      "Solom": 1009,
      "Thunder": 1010,
      "##000": 1011,
      "Crus": 1012,
      "Bros.": 1013,
      "Command": 1014,
      "Gyakush": 1015,
      "Grand": 1016,
      "Hunter": 1017,
      "Dungeons": 1018,
      "Indiana": 1019,
      "League": 1020,
      "Mickey": 1021,
      "Games": 1022,
      "Jinsei": 1023,
      "Machine": 1024,
      "Sword": 1025,
      "Basketball": 1026,
      "Classic": 1027,
      "Break": 1028,
      "Football": 1029,
      "Jump": 1030,
      "Rescue": 1031,
      "Bobble": 1032,
      "Bubble": 1033,
      "Circ": 1034,
      "Dodge": 1035,
      "Home": 1036,
      "Harikiri": 1037,
      "Nobunaga": 1038,
      "Return": 1039,
      "Sesame": 1040,
      "##-nen:": 1041,
      "Advanced": 1042,
      "Ultraman": 1043,
      "As": 1044,
      "Ab": 1045,
      "Ast": 1046,
      "Back": 1047,
      "Bill": 1048,
      "Di": 1049,
      "Den": 1050,
      "Dan": 1051,
      "Dal": 1052,
      "Des": 1053,
      "Die": 1054,
      "Demon": 1055,
      "Eag": 1056,
      "Fis": 1057,
      "Gu": 1058,
      "Gl": 1059,
      "God": 1060,
      "Gach": 1061,
      "Gimm": 1062,
      "Har": 1063,
      "Hoku": 1064,
      "Him": 1065,
      "Hik": 1066,
      "Id": 1067,
      "Ice": 1068,
      "Ju": 1069,
      "Je": 1070,
      "Jun": 1071,
      "Jaj": 1072,
      "Ker": 1073,
      "Kero": 1074,
      "Lord": 1075,
      "Load": 1076,
      "Mom": 1077,
      "Mot": 1078,
      "Nor": 1079,
      "Nak": 1080,
      "Op": 1081,
      "Ob": 1082,
      "Po": 1083,
      "Pa": 1084,
      "Pop": 1085,
      "Pool": 1086,
      "Rush": 1087,
      "Ser": 1088,
      "Sal": 1089,
      "Sky": 1090,
      "Tal": 1091,
      "Tot": 1092,
      "Tiny": 1093,
      "Val": 1094,
      "Vide": 1095,
      "We": 1096,
      "WW": 1097,
      "Whe": 1098,
      "Wai": 1099,
      "Yu": 1100,
      "Ys": 1101,
      "Yam": 1102,
      "or": 1103,
      "##na": 1104,
      "##ju": 1105,
      "##ius": 1106,
      "##ike": 1107,
      "##ov": 1108,
      "##zz": 1109,
      "##za": 1110,
      "##zy": 1111,
      "##zum": 1112,
      "##zase": 1113,
      "##mp": 1114,
      "##a!": 1115,
      "##aur": 1116,
      "##pei": 1117,
      "##dom": 1118,
      "##les": 1119,
      "##lot": 1120,
      "##y!": 1121,
      "##ya": 1122,
      "##yer": 1123,
      "##rei": 1124,
      "##rus": 1125,
      "##-D": 1126,
      "##-L": 1127,
      "##-C": 1128,
      "##-B": 1129,
      "##-Man": 1130,
      "##k:": 1131,
      "##kk": 1132,
      "##ker": 1133,
      "##gu": 1134,
      "##gon": 1135,
      "##bu": 1136,
      "##bow": 1137,
      "##bie": 1138,
      "##bōken": 1139,
      "##buster": 1140,
      "##van": 1141,
      "##wolf": 1142,
      "##[1": 1143,
      "##inator": 1144,
      "##inbow": 1145,
      "##aro": 1146,
      "##oun": 1147,
      "##ou:": 1148,
      "##ament": 1149,
      "##amura": 1150,
      "##amond": 1151,
      "##ori": 1152,
      "##att": 1153,
      "##ath": 1154,
      "##atte": 1155,
      "##ete": 1156,
      "##act": 1157,
      "##acle": 1158,
      "##une": 1159,
      "##ice": 1160,
      "##ichi": 1161,
      "##ure": 1162,
      "##ki!": 1163,
      "##rom": 1164,
      "##rop": 1165,
      "Stud": 1166,
      "##us:": 1167,
      "##ree": 1168,
      "##akuri": 1169,
      "##akusei": 1170,
      "Chin": 1171,
      "Chaos": 1172,
      "##okun": 1173,
      "##oto": 1174,
      "##ense": 1175,
      "Daibōken": 1176,
      "##opard": 1177,
      "Bases": 1178,
      "##shin": 1179,
      "Blue": 1180,
      "##man:": 1181,
      "'90": 1182,
      "'91": 1183,
      "Devil": 1184,
      "Form": 1185,
      "Tengoku": 1186,
      "Casino": 1187,
      "Golgo": 1188,
      "Kingdom": 1189,
      "##tlet": 1190,
      "Goemon": 1191,
      "Chip": 1192,
      "##oukai": 1193,
      "Cont": 1194,
      "Magical": 1195,
      "Ankoku": 1196,
      "Karakuri": 1197,
      "Robo": 1198,
      "##ppy": 1199,
      "Bugs": 1200,
      "Hyd": 1201,
      "Kung": 1202,
      "Takah": 1203,
      "Takeshi": 1204,
      "Gekitou": 1205,
      "Keib": 1206,
      "Racer": 1207,
      "Toon": 1208,
      "Toki": 1209,
      "Track": 1210,
      "Tourn": 1211,
      "##sons:": 1212,
      "##ouse": 1213,
      "Pachiokun": 1214,
      "Broth": 1215,
      "Hunt": 1216,
      "Ultimate": 1217,
      "Wizards": 1218,
      "Wizardry": 1219,
      "'88": 1220,
      "Fukk": 1221,
      "Hisshou": 1222,
      "Mezase": 1223,
      "America": 1224,
      "American": 1225,
      "Carniv": 1226,
      "Miracle": 1227,
      "Nazo": 1228,
      "Prince": 1229,
      "Bowl": 1230,
      "Bird": 1231,
      "Hiryu": 1232,
      "Rainbow": 1233,
      "Chōsen": 1234,
      "Cyber": 1235,
      "Crazy": 1236,
      "Edition": 1237,
      "Kamen": 1238,
      "Lolo": 1239,
      "Pinball": 1240,
      "Punch": 1241,
      "Surf": 1242,
      "Tetris": 1243,
      "Dracula": 1244,
      "Diamond": 1245,
      "Eagle": 1246,
      "Gachapon": 1247,
      "Hokuto": 1248,
      "Jeopard": 1249,
      "Jajamaru": 1250,
      "Loaded": 1251,
      "Momot": 1252,
      "WWF": 1253,
      "Wheel": 1254,
      "Studio": 1255,
      "Takahashi": 1256,
      "Tournament": 1257,
      "Fukkatsu": 1258,
      "Carnival": 1259,
      "Jeopardy!": 1260,
      "(J": 1261,
      "(G": 1262,
      "Ai": 1263,
      "Ak": 1264,
      "Aki": 1265,
      "Ath": 1266,
      "All": 1267,
      "Big": 1268,
      "Boku": 1269,
      "Bay": 1270,
      "Bart": 1271,
      "Bio": 1272,
      "Bunn": 1273,
      "Che": 1274,
      "Col": 1275,
      "Cob": 1276,
      "Cry": 1277,
      "Coun": 1278,
      "Der": 1279,
      "Day": 1280,
      "Dash": 1281,
      "Ei": 1282,
      "Eg": 1283,
      "Eik": 1284,
      "Fr": 1285,
      "Fushi": 1286,
      "Ga": 1287,
      "Ging": 1288,
      "Gra": 1289,
      "Hi": 1290,
      "Hen": 1291,
      "Hei": 1292,
      "Hot": 1293,
      "High": 1294,
      "Hoshi": 1295,
      "Iron": 1296,
      "Jou": 1297,
      "Jet": 1298,
      "Kl": 1299,
      "Kō": 1300,
      "KO": 1301,
      "Kou": 1302,
      "Kage": 1303,
      "Key": 1304,
      "Kick": 1305,
      "Koukou": 1306,
      "Lion": 1307,
      "Lost": 1308,
      "Lif": 1309,
      "Mar": 1310,
      "Mou": 1311,
      "Mor": 1312,
      "Mas": 1313,
      "Mac": 1314,
      "Mak": 1315,
      "Mec": 1316,
      "Might": 1317,
      "Makai": 1318,
      "No": 1319,
      "Nam": 1320,
      "Nag": 1321,
      "Nant": 1322,
      "Nishi": 1323,
      "Oo": 1324,
      "Ook": 1325,
      "Oly": 1326,
      "Over": 1327,
      "Ph": 1328,
      "Pen": 1329,
      "Pan": 1330,
      "Pon": 1331,
      "Pri": 1332,
      "Pock": 1333,
      "Rou": 1334,
      "Rei": 1335,
      "Ring": 1336,
      "Rom": 1337,
      "Ryuu": 1338,
      "Rem": 1339,
      "Radi": 1340,
      "Riv": 1341,
      "Ramp": 1342,
      "Runn": 1343,
      "Ryū": 1344,
      "Sa": 1345,
      "Sor": 1346,
      "Sus": 1347,
      "Sent": 1348,
      "Sek": 1349,
      "Sab": 1350,
      "Saw": 1351,
      "Sator": 1352,
      "Squ": 1353,
      "Sof": 1354,
      "Tō": 1355,
      "Tar": 1356,
      "Tag": 1357,
      "Tro": 1358,
      "Tri": 1359,
      "Tens": 1360,
      "Tok": 1361,
      "Tab": 1362,
      "Town": 1363,
      "Up": 1364,
      "US": 1365,
      "Veg": 1366,
      "Wag": 1367,
      "Wily": 1368,
      "Wood": 1369,
      "Wakusei": 1370,
      "Yū": 1371,
      "Yō": 1372,
      "Yan": 1373,
      "Yor": 1374,
      "Ze": 1375,
      "Zom": 1376,
      "Zoid": 1377,
      "Zone": 1378,
      "at": 1379,
      "ga": 1380,
      "ni": 1381,
      "wo": 1382,
      "##ues": 1383,
      "##uji": 1384,
      "##ny": 1385,
      "##jor": 1386,
      "##ien": 1387,
      "##ior": 1388,
      "##iri": 1389,
      "##oy": 1390,
      "##ox": 1391,
      "##oon": 1392,
      "##oki": 1393,
      "##t:": 1394,
      "##tsu": 1395,
      "##tball": 1396,
      "##town": 1397,
      "##tantei": 1398,
      "##sPAL": 1399,
      "##sette": 1400,
      "##e)": 1401,
      "##eki": 1402,
      "##e's": 1403,
      "##!?": 1404,
      "##!JP": 1405,
      "##mer": 1406,
      "##mes:": 1407,
      "##minator": 1408,
      "##hn": 1409,
      "##hou": 1410,
      "##hai": 1411,
      "##hatt": 1412,
      "##pu": 1413,
      "##py": 1414,
      "##pan": 1415,
      "##paku": 1416,
      "##pense": 1417,
      "##psons:": 1418,
      "##dou": 1419,
      "##day": 1420,
      "##lon": 1421,
      "##lide": 1422,
      "##ying": 1423,
      "##-2": 1424,
      "##-3": 1425,
      "##co": 1426,
      "##com": 1427,
      "##cade": 1428,
      "##cess": 1429,
      "##gaku": 1430,
      "##bl": 1431,
      "##bas": 1432,
      "##vas": 1433,
      "##way": 1434,
      "##I.": 1435,
      "##fend": 1436,
      "##Cop": 1437,
      "##.:": 1438,
      "##.I.": 1439,
      "##Ball": 1440,
      "##FR": 1441,
      "##anJP": 1442,
      "##anaru": 1443,
      "##onshi": 1444,
      "##onies": 1445,
      "##arch": 1446,
      "##our": 1447,
      "##ou)": 1448,
      "##ouble": 1449,
      "##ou!!": 1450,
      "##outo": 1451,
      "##atanaru": 1452,
      "##esJP": 1453,
      "##kuu": 1454,
      "##etic": 1455,
      "##acy": 1456,
      "##lem": 1457,
      "##leMan": 1458,
      "##ict": 1459,
      "##aders": 1460,
      "##kie": 1461,
      "##ki:": 1462,
      "##roku": 1463,
      "Ste": 1464,
      "##ings": 1465,
      "##omi": 1466,
      "##rio": 1467,
      "Shu": 1468,
      "Shang": 1469,
      "Shingen": 1470,
      "Chu": 1471,
      "##ents": 1472,
      "Spiri": 1473,
      "##lda": 1474,
      "##cha": 1475,
      "##yuuki": 1476,
      "##amed": 1477,
      "Bass": 1478,
      "Max": 1479,
      "Mappy": 1480,
      "Major": 1481,
      "WorldJP": 1482,
      "##sha": 1483,
      "Blob": 1484,
      "Blade": 1485,
      "Blues": 1486,
      "IIIJP": 1487,
      "Sanrio": 1488,
      "Shima": 1489,
      "Shijou": 1490,
      "##edd": 1491,
      "##kyou": 1492,
      "Manhatt": 1493,
      "Meikan": 1494,
      "Meikyuu": 1495,
      "Meitantei": 1496,
      "Arm": 1497,
      "Aratanaru": 1498,
      "'93": 1499,
      "Dead": 1500,
      "Defend": 1501,
      "Ball:": 1502,
      "Cassette": 1503,
      "##ection": 1504,
      "Boy": 1505,
      "Boken": 1506,
      "Kings": 1507,
      "Goonies": 1508,
      "Kyonshi": 1509,
      "Kyouto": 1510,
      "##stal": 1511,
      "Heroes": 1512,
      "##oukon": 1513,
      "Conn": 1514,
      "Anpan": 1515,
      "Karate": 1516,
      "Karao": 1517,
      "Plan": 1518,
      "Saikyou": 1519,
      "Taisen": 1520,
      "Taito": 1521,
      "Turbo": 1522,
      "Hyper": 1523,
      "Kaiketsu": 1524,
      "Kunio": 1525,
      "Misa": 1526,
      "Gekijou": 1527,
      "Flying": 1528,
      "One": 1529,
      "Three": 1530,
      "Trouble": 1531,
      "Touch": 1532,
      "StadiumJP": 1533,
      "'n'": 1534,
      "Alien": 1535,
      "Exc": 1536,
      "##boy": 1537,
      "##ushiki": 1538,
      "Pachi-S": 1539,
      "WrestleMan": 1540,
      "Doom": 1541,
      "John": 1542,
      "Second": 1543,
      "##her-P": 1544,
      "Castlevan": 1545,
      "Ultima": 1546,
      "Turtles:": 1547,
      "Galax": 1548,
      "Tomato": 1549,
      "##avy": 1550,
      "Players": 1551,
      "##-Kun:": 1552,
      "Special:": 1553,
      "NazoJP": 1554,
      "Puzz": 1555,
      "Princess": 1556,
      "Search": 1557,
      "Terminator": 1558,
      "Storm": 1559,
      "Story": 1560,
      "Bomber": 1561,
      "Destiny": 1562,
      "Honoo": 1563,
      "Holmes:": 1564,
      "IV:": 1565,
      "Snow": 1566,
      "Slay": 1567,
      "Simpsons:": 1568,
      "TwinB": 1569,
      "Vol.": 1570,
      "Watashi": 1571,
      "Yabou:": 1572,
      "##quest": 1573,
      "Mystery": 1574,
      "Akumajō": 1575,
      "Ghostbuster": 1576,
      "194": 1577,
      "Bouken": 1578,
      "Bakushou!!": 1579,
      "Caper": 1580,
      "Cosmo": 1581,
      "Downtown": 1582,
      "Fuuun": 1583,
      "Kabushiki": 1584,
      "Musashi": 1585,
      "Palace": 1586,
      "Roller": 1587,
      "Wanpaku": 1588,
      "##rice:": 1589,
      "##ettatte": 1590,
      "Sports": 1591,
      "##oppi": 1592,
      "Fortune": 1593,
      "Goal!": 1594,
      "Solomon's": 1595,
      "Crusade": 1596,
      "Gyakushuu": 1597,
      "Circus": 1598,
      "Fisher-P": 1599,
      "Hikari": 1600,
      "Junior": 1601,
      "Keroppi": 1602,
      "Open": 1603,
      "Video": 1604,
      "Yamamura": 1605,
      "##zumou": 1606,
      "Chines": 1607,
      "Formul": 1608,
      "Contra": 1609,
      "RoboCop": 1610,
      "Hydlide": 1611,
      "Brothers": 1612,
      "Hisshougaku": 1613,
      "Momotaro": 1614,
      "(Jou)": 1615,
      "(Ge)": 1616,
      "Akira": 1617,
      "Bunny": 1618,
      "Cobra": 1619,
      "Crystal": 1620,
      "Count": 1621,
      "Derby": 1622,
      "Fushigi": 1623,
      "Ginga": 1624,
      "Life": 1625,
      "Namco": 1626,
      "Nantettatte": 1627,
      "Oozumou": 1628,
      "Ookami": 1629,
      "Olymp": 1630,
      "Pocket": 1631,
      "Ryūkenden": 1632,
      "Suspense": 1633,
      "Sekai": 1634,
      "Sawyer": 1635,
      "Satoru": 1636,
      "Softball": 1637,
      "Vegas": 1638,
      "Wagyan": 1639,
      "Yancha": 1640,
      "York": 1641,
      "Zelda": 1642,
      "Zombie": 1643,
      "Shanghai": 1644,
      "Manhattan": 1645,
      "Anpanman": 1646,
      "Karaoke": 1647,
      "Pachi-Slot": 1648,
      "Castlevania": 1649,
      "Ghostbusters": 1650,
      "Fisher-Price:": 1651,
      "(JP": 1652,
      "10": 1653,
      "20": 1654,
      "25": 1655,
      "4:": 1656,
      "5:": 1657,
      "Av": 1658,
      "Aer": 1659,
      "Ara": 1660,
      "And": 1661,
      "Atl": 1662,
      "A-B": 1663,
      "Aoki": 1664,
      "Bal": 1665,
      "Bur": 1666,
      "Bak": 1667,
      "Band": 1668,
      "Bab": 1669,
      "Bard": 1670,
      "Baz": 1671,
      "Bik": 1672,
      "Bunge": 1673,
      "Bush": 1674,
      "Buster": 1675,
      "Cop": 1676,
      "Centur": 1677,
      "Cav": 1678,
      "Cris": 1679,
      "Coo": 1680,
      "Cross": 1681,
      "Din": 1682,
      "Dent": 1683,
      "Dem": 1684,
      "Dud": 1685,
      "Dino": 1686,
      "Doko": 1687,
      "Deka": 1688,
      "Da!": 1689,
      "Es": 1690,
      "Ep": 1691,
      "Evil": 1692,
      "Fe": 1693,
      "Fū": 1694,
      "FC": 1695,
      "F1": 1696,
      "Fer": 1697,
      "Fun": 1698,
      "Fle": 1699,
      "Fri": 1700,
      "Fari": 1701,
      "Fut": 1702,
      "Fev": 1703,
      "Fox": 1704,
      "Gar": 1705,
      "Gor": 1706,
      "Got": 1707,
      "Gob": 1708,
      "G.I.": 1709,
      "Ha": 1710,
      "Her": 1711,
      "Han": 1712,
      "Hou": 1713,
      "Hor": 1714,
      "Hit": 1715,
      "Haru": 1716,
      "Hana": 1717,
      "Haw": 1718,
      "Hakush": 1719,
      "HenJP": 1720,
      "Hell": 1721,
      "Hector": 1722,
      "House": 1723,
      "It": 1724,
      "Im": 1725,
      "Ic": 1726,
      "Ipp": 1727,
      "Ishin": 1728,
      "Jar": 1729,
      "Jac": 1730,
      "Jing": 1731,
      "Jis": 1732,
      "Jid": 1733,
      "Jek": 1734,
      "Jong": 1735,
      "Jud": 1736,
      "Jima": 1737,
      "J-L": 1738,
      "Ku": 1739,
      "Ko": 1740,
      "Kon": 1741,
      "Kin": 1742,
      "Kur": 1743,
      "Kis": 1744,
      "Kir": 1745,
      "Kame": 1746,
      "Kura": 1747,
      "Khan": 1748,
      "Kett": 1749,
      "Kishi": 1750,
      "Kawa": 1751,
      "Las": 1752,
      "Let": 1753,
      "Lun": 1754,
      "Lot": 1755,
      "Low": 1756,
      "Light": 1757,
      "Liv": 1758,
      "Lode": 1759,
      "Lov": 1760,
      "M.": 1761,
      "Mer": 1762,
      "Mam": 1763,
      "Mat": 1764,
      "Mur": 1765,
      "Mil": 1766,
      "Matsu": 1767,
      "Med": 1768,
      "Mog": 1769,
      "Mash": 1770,
      "Mous": 1771,
      "Mr.": 1772,
      "NA": 1773,
      "NE": 1774,
      "Nem": 1775,
      "Nation": 1776,
      "Ningen": 1777,
      "Nichi": 1778,
      "Or": 1779,
      "Off": 1780,
      "Oeka": 1781,
      "Pe": 1782,
      "Per": 1783,
      "Pol": 1784,
      "Pit": 1785,
      "Pir": 1786,
      "Pach": 1787,
      "Pip": 1788,
      "Ri": 1789,
      "Ran": 1790,
      "Ram": 1791,
      "Run": 1792,
      "Rec": 1793,
      "Retsu": 1794,
      "Rack": 1795,
      "Rod": 1796,
      "Red": 1797,
      "Rog": 1798,
      "Rang": 1799,
      "Rul": 1800,
      "Real": 1801,
      "R.C.": 1802,
      "Ranger": 1803,
      "Sm": 1804,
      "Sy": 1805,
      "Sk": 1806,
      "Son": 1807,
      "Sat": 1808,
      "Sem": 1809,
      "Saga": 1810,
      "Six": 1811,
      "Ty": 1812,
      "Ton": 1813,
      "Thi": 1814,
      "Tei": 1815,
      "Tig": 1816,
      "Tit": 1817,
      "Tetsu": 1818,
      "Tantei": 1819,
      "Toukon": 1820,
      "Ur": 1821,
      "Uki": 1822,
      "Uch": 1823,
      "Uchi": 1824,
      "V:": 1825,
      "V'": 1826,
      "Wh": 1827,
      "Whi": 1828,
      "Wack": 1829,
      "Way": 1830,
      "Wana": 1831,
      "Wario": 1832,
      "Wher": 1833,
      "Wald": 1834,
      "Xev": 1835,
      "Yo": 1836,
      "Yon": 1837,
      "You": 1838,
      "Youkai": 1839,
      "Z:": 1840,
      "Zai": 1841,
      "de": 1842,
      "he": 1843,
      "mo": 1844,
      "Ōgon": 1845,
      "##uit": 1846,
      "##ue:": 1847,
      "##ner": 1848,
      "##ning": 1849,
      "##ness": 1850,
      "##jo": 1851,
      "##jan": 1852,
      "##jaku": 1853,
      "##juu": 1854,
      "##jutsu": 1855,
      "##ier": 1856,
      "##iac": 1857,
      "##ient": 1858,
      "##ible": 1859,
      "##ious": 1860,
      "##oe": 1861,
      "##o?": 1862,
      "##oop": 1863,
      "##tr": 1864,
      "##tō": 1865,
      "##tai": 1866,
      "##tei": 1867,
      "##tel": 1868,
      "##tte": 1869,
      "##se": 1870,
      "##sw": 1871,
      "##sf": 1872,
      "##sJP": 1873,
      "##som": 1874,
      "##satsu": 1875,
      "##ze": 1876,
      "##zou": 1877,
      "##zoku": 1878,
      "##zill": 1879,
      "##e!": 1880,
      "##ep": 1881,
      "##eague": 1882,
      "##m:": 1883,
      "##mai": 1884,
      "##mic": 1885,
      "##maku": 1886,
      "##mura": 1887,
      "##moto": 1888,
      "##hō": 1889,
      "##hen": 1890,
      "##hin": 1891,
      "##henJP": 1892,
      "##a's": 1893,
      "##pire": 1894,
      "##dō": 1895,
      "##dai": 1896,
      "##dier": 1897,
      "##la": 1898,
      "##lock": 1899,
      "##lord": 1900,
      "##laster": 1901,
      "##letic": 1902,
      "##yl": 1903,
      "##yon": 1904,
      "##yak": 1905,
      "##yll": 1906,
      "##ya:": 1907,
      "##raku": 1908,
      "##rari": 1909,
      "##ress": 1910,
      "##-J": 1911,
      "##-A": 1912,
      "##-G": 1913,
      "##-F": 1914,
      "##-M": 1915,
      "##-N": 1916,
      "##-W": 1917,
      "##-bu": 1918,
      "##kū": 1919,
      "##kou": 1920,
      "##ka:": 1921,
      "##,000": 1922,
      "##cle": 1923,
      "##cient": 1924,
      "##gen": 1925,
      "##gou": 1926,
      "##gor": 1927,
      "##ghi": 1928,
      "##get": 1929,
      "##gus": 1930,
      "##gate": 1931,
      "##bi": 1932,
      "##bat": 1933,
      "##bit": 1934,
      "##bot": 1935,
      "##bir": 1936,
      "##back": 1937,
      "##bble": 1938,
      "##bian": 1939,
      "##bler": 1940,
      "##bition": 1941,
      "##butsu": 1942,
      "##L.": 1943,
      "##ū!": 1944,
      "##va": 1945,
      "##vity": 1946,
      "##'n": 1947,
      "##wa": 1948,
      "##wor": 1949,
      "##fu": 1950,
      "##fall": 1951,
      "##fect": 1952,
      "##ō!": 1953,
      "##3:": 1954,
      "##.S": 1955,
      "##..": 1956,
      "##][1": 1957,
      "##Tal": 1958,
      "##Trop": 1959,
      "##10": 1960,
      "##Em": 1961,
      "##E.": 1962,
      "##enario": 1963,
      "##enger": 1964,
      "##ane": 1965,
      "##ank": 1966,
      "##in:": 1967,
      "##inko": 1968,
      "##inha": 1969,
      "##arter": 1970,
      "##oul": 1971,
      "##oumon": 1972,
      "##aman": 1973,
      "##ames": 1974,
      "##amand": 1975,
      "##amite": 1976,
      "##als": 1977,
      "##hell": 1978,
      "##heher": 1979,
      "##ory": 1980,
      "##aton": 1981,
      "##atter": 1982,
      "##ester": 1983,
      "##essen": 1984,
      "##kuri": 1985,
      "##asol": 1986,
      "##asure": 1987,
      "##ets": 1988,
      "##achi": 1989,
      "##acles": 1990,
      "##aga:": 1991,
      "##suke": 1992,
      "##unker": 1993,
      "##untlet": 1994,
      "##icJP": 1995,
      "##ical": 1996,
      "##ice:": 1997,
      "##iceJP": 1998,
      "IIPAL": 1999,
      "##urut": 2000,
      "##uro:": 2001,
      "##eisen": 2002,
      "##ader": 2003,
      "##adill": 2004,
      "##rol": 2005,
      "##roll": 2006,
      "Stall": 2007,
      "Steal": 2008,
      "##omo": 2009,
      "##rier": 2010,
      "##rill": 2011,
      "##uss": 2012,
      "##ign": 2013,
      "##igawa": 2014,
      "##ild": 2015,
      "##ita": 2016,
      "##ital": 2017,
      "##itsu": 2018,
      "##iting": 2019,
      "Shuu": 2020,
      "Shoot": 2021,
      "##iss": 2022,
      "##perboy": 2023,
      "##ott": 2024,
      "##otsu": 2025,
      "##owar": 2026,
      "##owout": 2027,
      "Spe": 2028,
      "Spl": 2029,
      "Spot": 2030,
      "Spel": 2031,
      "Spart": 2032,
      "Dragon:": 2033,
      "##imber": 2034,
      "##osaur": 2035,
      "##och": 2036,
      "##gege": 2037,
      "Daiku": 2038,
      "Daisu": 2039,
      "Daiun": 2040,
      "Warp": 2041,
      "Wars:": 2042,
      "Addam": 2043,
      "##obics": 2044,
      "##antom": 2045,
      "##antis": 2046,
      "##chou": 2047,
      "Pro:": 2048,
      "Pro-A": 2049,
      "Probot": 2050,
      "##ke!": 2051,
      "##ame:": 2052,
      "##ightJP": 2053,
      "##den:": 2054,
      "##denJP": 2055,
      "##eman": 2056,
      "##ember": 2057,
      "##cell": 2058,
      "##celon": 2059,
      "NinjaJP": 2060,
      "##oker": 2061,
      "##okai": 2062,
      "##okkun": 2063,
      "##okoumon": 2064,
      "##ayo": 2065,
      "Block": 2066,
      "Blood": 2067,
      "Blowout": 2068,
      "##odius": 2069,
      "##egade": 2070,
      "Quarter": 2071,
      "Stars": 2072,
      "Stars:": 2073,
      "StarTrop": 2074,
      "Batman": 2075,
      "Battles": 2076,
      "Batman:": 2077,
      "Battlet": 2078,
      "Money": 2079,
      "Shirei": 2080,
      "##shien": 2081,
      "##eda": 2082,
      "##kyū": 2083,
      "##ersary": 2084,
      "##thday": 2085,
      "Clu": 2086,
      "Climber": 2087,
      "Gun:": 2088,
      "##appy": 2089,
      "Kid:": 2090,
      "Mansion": 2091,
      "Maniac": 2092,
      "Meiro": 2093,
      "Meimon": 2094,
      "Issh": 2095,
      "Arch": 2096,
      "Arkan": 2097,
      "Arcade": 2098,
      "GamePAL": 2099,
      "Sengoku": 2100,
      "Senyou": 2101,
      "##ryu": 2102,
      "##ryaku": 2103,
      "'94": 2104,
      "##ji:": 2105,
      "##jika:": 2106,
      "Deep": 2107,
      "Tenkai": 2108,
      "Tenchi": 2109,
      "##endo": 2110,
      "##adius": 2111,
      "Book": 2112,
      "Doujou": 2113,
      "Doukyuu": 2114,
      "Gear": 2115,
      "Gegege": 2116,
      "KingJP": 2117,
      "King's": 2118,
      "Sensei": 2119,
      "Sensation": 2120,
      "Kyu": 2121,
      "Kyor": 2122,
      "Kyout": 2123,
      "##stones": 2124,
      "##angle": 2125,
      "Ultra": 2126,
      "Chiki": 2127,
      "Chitei": 2128,
      "Jiko": 2129,
      "Jikuu": 2130,
      "##udan": 2131,
      "Conquest": 2132,
      "Inc": 2133,
      "Inter": 2134,
      "Invas": 2135,
      "Inner": 2136,
      "Moon": 2137,
      "Pac-Man": 2138,
      "Anniv": 2139,
      "Ancient": 2140,
      "Legacy": 2141,
      "Saigo": 2142,
      "Saiya": 2143,
      "Saiyuuki": 2144,
      "Saidai": 2145,
      "Tairi": 2146,
      "Taiyou": 2147,
      "##azade": 2148,
      "##ppari": 2149,
      "Ambition": 2150,
      "Capcom": 2151,
      "Donald": 2152,
      "Kaijuu": 2153,
      "Kaimaku": 2154,
      "Kuni": 2155,
      "KunJP": 2156,
      "Miss": 2157,
      "Takeda": 2158,
      "##oads": 2159,
      "##eye": 2160,
      "GolfJP": 2161,
      "MonogatariJP": 2162,
      "Flint": 2163,
      "Metro": 2164,
      "One:": 2165,
      "Solst": 2166,
      "Soldier": 2167,
      "##son's": 2168,
      "##ousai": 2169,
      "Club:": 2170,
      "ChallengePAL": 2171,
      "Alone": 2172,
      "Crash": 2173,
      "Dug": 2174,
      "Excell": 2175,
      "Scram": 2176,
      "Scenario": 2177,
      "Scheher": 2178,
      "Scroll": 2179,
      "Seiki": 2180,
      "Seirei": 2181,
      "Seiya:": 2182,
      "Senki:": 2183,
      "DaisakusenJP": 2184,
      "Compu": 2185,
      "Combat": 2186,
      "Door": 2187,
      "Doki!": 2188,
      "Gyro": 2189,
      "Gradius": 2190,
      "Gen-S": 2191,
      "Genghi": 2192,
      "Joe": 2193,
      "Joe:": 2194,
      "Megami": 2195,
      "Parasol": 2196,
      "Parodius": 2197,
      "Ressha": 2198,
      "Tsuri": 2199,
      "Tsuru": 2200,
      "Tsubas": 2201,
      "Tsuppari": 2202,
      "##kaiJP": 2203,
      "##ake!!": 2204,
      "##ushinha": 2205,
      "Monsters": 2206,
      "'89": 2207,
      "'87": 2208,
      "Hissatsu": 2209,
      "Mejika:": 2210,
      "Michi": 2211,
      "Ougon": 2212,
      "TatakaiJP": 2213,
      "Cup:": 2214,
      "Gambler": 2215,
      "Gokuraku": 2216,
      "Mini": 2217,
      "Minna": 2218,
      "Mirai": 2219,
      "Puyo": 2220,
      "Party": 2221,
      "Silk": 2222,
      "Silver": 2223,
      "##han:": 2224,
      "##ajima": 2225,
      "##-Pro": 2226,
      "TennisJP": 2227,
      "WrestlingJP": 2228,
      "Beach": 2229,
      "Bomb": 2230,
      "Bowling": 2231,
      "Birthday": 2232,
      "BōkenJP": 2233,
      "Dynamite": 2234,
      "Emble": 2235,
      "Empire": 2236,
      "Kagi": 2237,
      "Kitty": 2238,
      "MaruJP": 2239,
      "Snake": 2240,
      "Simul": 2241,
      "Tank": 2242,
      "Tanigawa": 2243,
      "Volley": 2244,
      "##rney": 2245,
      "##ffle": 2246,
      "Strik": 2247,
      "Striker": 2248,
      "Choujin": 2249,
      "##ell's": 2250,
      "DuckTal": 2251,
      "Mystery:": 2252,
      "Revenge:": 2253,
      "13:": 2254,
      "Airwolf": 2255,
      "Banana": 2256,
      "Barcelon": 2257,
      "Bakushō!": 2258,
      "Cosmic": 2259,
      "Digital": 2260,
      "Doraemon": 2261,
      "Hook": 2262,
      "Heavy": 2263,
      "Hakkenden": 2264,
      "Mitsu": 2265,
      "Mitokoumon": 2266,
      "Nanatsu": 2267,
      "Othell": 2268,
      "Palamed": 2269,
      "Renegade": 2270,
      "Trek:": 2271,
      "Treasure": 2272,
      "##lins": 2273,
      "##-Out": 2274,
      "Chuugoku": 2275,
      "Shiroki": 2276,
      "Solomon": 2277,
      "Crusaders": 2278,
      "Commando": 2279,
      "Commander": 2280,
      "Mickey's": 2281,
      "BasketballJP": 2282,
      "Break:": 2283,
      "Circuit": 2284,
      "Nobunaga's": 2285,
      "Returns": 2286,
      "Asob": 2287,
      "Astro": 2288,
      "Danpei": 2289,
      "Dale": 2290,
      "Dale:": 2291,
      "Design": 2292,
      "Guard": 2293,
      "Godzill": 2294,
      "Gimme": 2295,
      "Gimmick": 2296,
      "Harry": 2297,
      "HimeJP": 2298,
      "Ide": 2299,
      "North": 2300,
      "Nakajima": 2301,
      "Poi": 2302,
      "Paaman": 2303,
      "Paperboy": 2304,
      "Popeye": 2305,
      "Salad": 2306,
      "Salamand": 2307,
      "Tale": 2308,
      "Totsu": 2309,
      "Week": 2310,
      "Weapon": 2311,
      "##juku": 2312,
      "##-Land": 2313,
      "##-Chan:": 2314,
      "##guin": 2315,
      "TengokuJP": 2316,
      "Kingdoms": 2317,
      "Kung-F": 2318,
      "Keiba": 2319,
      "Mezase!": 2320,
      "Cybern": 2321,
      "Punch-Out": 2322,
      "Diamonds": 2323,
      "Athletic": 2324,
      "Chess": 2325,
      "Eiyuu": 2326,
      "Eikou": 2327,
      "Gauntlet": 2328,
      "Gravity": 2329,
      "Heisei": 2330,
      "Journey": 2331,
      "Mech": 2332,
      "Mighty": 2333,
      "Nishimura": 2334,
      "Overlord": 2335,
      "Phantom": 2336,
      "Penguin": 2337,
      "Prix": 2338,
      "Romance": 2339,
      "Remember": 2340,
      "Rivals": 2341,
      "Rampart": 2342,
      "Runner": 2343,
      "Saint": 2344,
      "Sentai": 2345,
      "Saburo:": 2346,
      "Square": 2347,
      "Tarurut": 2348,
      "Triangle": 2349,
      "Tensei": 2350,
      "USA": 2351,
      "Yōsuke": 2352,
      "Zoids:": 2353,
      "##ekiJP": 2354,
      "##!?JP": 2355,
      "##-2-3": 2356,
      "Steel": 2357,
      "Shuffle": 2358,
      "Chuushinha": 2359,
      "Spirit:": 2360,
      "Deadly": 2361,
      "Defender": 2362,
      "Connection": 2363,
      "Planet": 2364,
      "Kunio-Kun": 2365,
      "Exciting": 2366,
      "WrestleMania": 2367,
      "Galaxy": 2368,
      "Players'": 2369,
      "Puzzle": 2370,
      "Bomberman": 2371,
      "Slayer": 2372,
      "TwinBee": 2373,
      "1943:": 2374,
      "Chinese": 2375,
      "Formula": 2376,
      "Country": 2377,
      "Olympus": 2378,
      "(JP)": 2379,
      "10-": 2380,
      "2010": 2381,
      "25th": 2382,
      "Aerobics": 2383,
      "Arabian": 2384,
      "Atlantis": 2385,
      "A-B-C": 2386,
      "Bard's": 2387,
      "Bikkuri": 2388,
      "Bungeling": 2389,
      "Bushou": 2390,
      "Century": 2391,
      "Caveman": 2392,
      "Crisis": 2393,
      "Dinosaur": 2394,
      "Dentetsu": 2395,
      "Dudes": 2396,
      "Esper": 2397,
      "Ferrari": 2398,
      "Fleet": 2399,
      "Future": 2400,
      "Heracles": 2401,
      "Hello": 2402,
      "Jackie": 2403,
      "Jinguji": 2404,
      "Jissen": 2405,
      "Jidai": 2406,
      "Jekyll": 2407,
      "J-League": 2408,
      "Kujaku": 2409,
      "Koji": 2410,
      "Konami": 2411,
      "Kirby": 2412,
      "Kurau": 2413,
      "Ketteisen": 2414,
      "Lunar": 2415,
      "M.U": 2416,
      "Mermai": 2417,
      "Murder": 2418,
      "Matsumoto": 2419,
      "Medal": 2420,
      "Mogura": 2421,
      "NES": 2422,
      "Perfect": 2423,
      "Pitfall": 2424,
      "Pirat": 2425,
      "Pachinko": 2426,
      "Roger": 2427,
      "Rangers": 2428,
      "Skate": 2429,
      "Satomi": 2430,
      "Titan": 2431,
      "V'Ball": 2432,
      "White": 2433,
      "Wacky": 2434,
      "Wayn": 2435,
      "##bird": 2436,
      "##L.E.": 2437,
      "##atterh": 2438,
      "Stallion": 2439,
      "Stealth": 2440,
      "Shooting": 2441,
      "Spelunker": 2442,
      "Spartan": 2443,
      "Addams": 2444,
      "Pro-Am": 2445,
      "Probotector": 2446,
      "BlockJP": 2447,
      "Quarterback": 2448,
      "StarTropics": 2449,
      "Battletoads": 2450,
      "Meimon!": 2451,
      "Arkanoid": 2452,
      "Tenkaichi": 2453,
      "Doukyuuji:": 2454,
      "Kyoutarou": 2455,
      "##stones:": 2456,
      "Invasion": 2457,
      "Anniversary": 2458,
      "Saiyajin": 2459,
      "Flintstones:": 2460,
      "Excellent": 2461,
      "Scramble": 2462,
      "Scheherazade": 2463,
      "Computer": 2464,
      "Genghis": 2465,
      "DuckTales": 2466,
      "Barcelona": 2467,
      "Palamedes": 2468,
      "Kung-Fu": 2469,
      "Taruruto": 2470,
      "Mermaid": 2471,
      "!!JP": 2472,
      "$1": 2473,
      "'I": 2474,
      "'Em": 2475,
      "(T": 2476,
      "-S": 2477,
      "16": 2478,
      "18": 2479,
      "1.": 2480,
      "1JP": 2481,
      "1000": 2482,
      "1-nen:": 2483,
      "1-2-3": 2484,
      "21": 2485,
      "2PAL": 2486,
      "2[e]": 2487,
      "2-nen:": 2488,
      "2FR": 2489,
      "3b": 2490,
      "3-nen:": 2491,
      "3-D": 2492,
      "4-nen:": 2493,
      "4-J": 2494,
      "51": 2495,
      "5+": 2496,
      "5000": 2497,
      "6:": 2498,
      "72": 2499,
      "80": 2500,
      "Aa": 2501,
      "Ac": 2502,
      "AS": 2503,
      "Af": 2504,
      "AT": 2505,
      "Ale": 2506,
      "Aig": 2507,
      "Ach": 2508,
      "Ash": 2509,
      "Ace": 2510,
      "Ashi": 2511,
      "Aster": 2512,
      "Auss": 2513,
      "Bon": 2514,
      "Bin": 2515,
      "Bing": 2516,
      "Bus": 2517,
      "Baku": 2518,
      "Bion": 2519,
      "Bum": 2520,
      "Bra": 2521,
      "Bang": 2522,
      "Bud": 2523,
      "Bouk": 2524,
      "Brain": 2525,
      "Bond": 2526,
      "Bushi": 2527,
      "Bram": 2528,
      "Bark": 2529,
      "Burn": 2530,
      "Butsu": 2531,
      "Boko": 2532,
      "Bell": 2533,
      "Bike": 2534,
      "B-W": 2535,
      "Bita": 2536,
      "Cen": 2537,
      "Can": 2538,
      "Cal": 2539,
      "Cor": 2540,
      "Cat": 2541,
      "Cur": 2542,
      "Cro": 2543,
      "Cre": 2544,
      "Cand": 2545,
      "Cow": 2546,
      "Coc": 2547,
      "Cant": 2548,
      "Cut": 2549,
      "Cab": 2550,
      "Cog": 2551,
      "Cub": 2552,
      "Cart": 2553,
      "Cage": 2554,
      "Cool": 2555,
      "Code": 2556,
      "Clem": 2557,
      "Cedd": 2558,
      "Cadill": 2559,
      "Dō": 2560,
      "Dé": 2561,
      "Dor": 2562,
      "Dun": 2563,
      "Dri": 2564,
      "Dus": 2565,
      "Doku": 2566,
      "Dum": 2567,
      "Dir": 2568,
      "Datsu": 2569,
      "Dart": 2570,
      "Denge": 2571,
      "Div": 2572,
      "Dare": 2573,
      "Dick": 2574,
      "Dance": 2575,
      "Dav": 2576,
      "DenJP": 2577,
      "Danger": 2578,
      "Dice": 2579,
      "Drop": 2580,
      "Doch": 2581,
      "Ey": 2582,
      "Ev": 2583,
      "Ele": 2584,
      "Eri": 2585,
      "Eig": 2586,
      "Ell": 2587,
      "Emo": 2588,
      "Ely": 2589,
      "Eric": 2590,
      "Elem": 2591,
      "Fre": 2592,
      "Fit": 2593,
      "Fel": 2594,
      "Fang": 2595,
      "Fud": 2596,
      "Fast": 2597,
      "Fron": 2598,
      "Fax": 2599,
      "Fact": 2600,
      "From": 2601,
      "Free": 2602,
      "Four": 2603,
      "Fester": 2604,
      "GP": 2605,
      "GA": 2606,
      "Gei": 2607,
      "Gom": 2608,
      "Gig": 2609,
      "Gari": 2610,
      "Getsu": 2611,
      "Gum": 2612,
      "Gem": 2613,
      "Gry": 2614,
      "Gue": 2615,
      "Gang": 2616,
      "Gill": 2617,
      "Gate": 2618,
      "Gour": 2619,
      "H.": 2620,
      "Ham": 2621,
      "Hat": 2622,
      "Hai": 2623,
      "Hig": 2624,
      "Hid": 2625,
      "Hok": 2626,
      "Hay": 2627,
      "Hog": 2628,
      "Hach": 2629,
      "Hard": 2630,
      "Hill": 2631,
      "Hud": 2632,
      "Hash": 2633,
      "Host": 2634,
      "Hide": 2635,
      "Hood": 2636,
      "Hamaru": 2637,
      "Hopp": 2638,
      "Hatt": 2639,
      "Happy": 2640,
      "I+": 2641,
      "Iku": 2642,
      "Ike": 2643,
      "Ishi": 2644,
      "Ichi": 2645,
      "Izum": 2646,
      "Imp": 2647,
      "Ivan": 2648,
      "Ja": 2649,
      "JJ": 2650,
      "JP": 2651,
      "Jō": 2652,
      "J.": 2653,
      "Jen": 2654,
      "Jer": 2655,
      "Jan": 2656,
      "Jes": 2657,
      "Jur": 2658,
      "Jus": 2659,
      "Jig": 2660,
      "Juu": 2661,
      "Jim": 2662,
      "Jir": 2663,
      "Jog": 2664,
      "Jap": 2665,
      "Jang": 2666,
      "Jaw": 2667,
      "Jash": 2668,
      "Jord": 2669,
      "Jyu": 2670,
      "Jockey": 2671,
      "Jimm": 2672,
      "James": 2673,
      "Joker": 2674,
      "Ka": 2675,
      "Kan": 2676,
      "Kat": 2677,
      "Kak": 2678,
      "Kom": 2679,
      "Kri": 2680,
      "Kaku": 2681,
      "Kand": 2682,
      "Kim": 2683,
      "Kum": 2684,
      "Kra": 2685,
      "Kek": 2686,
      "Kill": 2687,
      "Kool": 2688,
      "Koshi": 2689,
      "Kocc": 2690,
      "Kake": 2691,
      "Keru": 2692,
      "Ka!": 2693,
      "Krus": 2694,
      "Katte": 2695,
      "Koto": 2696,
      "Koukon": 2697,
      "Kessen": 2698,
      "Kachi": 2699,
      "Kokkun": 2700,
      "Kudan": 2701,
      "La": 2702,
      "L'": 2703,
      "Lin": 2704,
      "Lor": 2705,
      "Lai": 2706,
      "Lag": 2707,
      "Lic": 2708,
      "Los": 2709,
      "Lum": 2710,
      "Lem": 2711,
      "Lay": 2712,
      "Lab": 2713,
      "Lap": 2714,
      "Law": 2715,
      "Lond": 2716,
      "Lick": 2717,
      "Lance": 2718,
      "Line": 2719,
      "Lup": 2720,
      "Lly": 2721,
      "Lone": 2722,
      "Luster": 2723,
      "Loop": 2724,
      "Mu": 2725,
      "Mc": 2726,
      "MV": 2727,
      "Men": 2728,
      "Mai": 2729,
      "Moku": 2730,
      "Mid": 2731,
      "Metsu": 2732,
      "Mant": 2733,
      "Mame": 2734,
      "Mel": 2735,
      "Mend": 2736,
      "Miz": 2737,
      "Made": 2738,
      "Mill": 2739,
      "Ms.": 2740,
      "M-K": 2741,
      "M.C.": 2742,
      "Mike": 2743,
      "Math": 2744,
      "Mouse": 2745,
      "Nu": 2746,
      "NB": 2747,
      "NF": 2748,
      "Nar": 2749,
      "Nai": 2750,
      "Net": 2751,
      "Ning": 2752,
      "Nig": 2753,
      "Num": 2754,
      "Nyuu": 2755,
      "Nut": 2756,
      "Neg": 2757,
      "Nap": 2758,
      "Nadi": 2759,
      "Nick": 2760,
      "Nushi": 2761,
      "Naga": 2762,
      "Noid": 2763,
      "Nyan": 2764,
      "Navy": 2765,
      "Name:": 2766,
      "Oz": 2767,
      "Oh": 2768,
      "O'": 2769,
      "Ow": 2770,
      "OB": 2771,
      "Ois": 2772,
      "Oper": 2773,
      "Ora": 2774,
      "Och": 2775,
      "Out": 2776,
      "Oek": 2777,
      "Oshi": 2778,
      "Oct": 2779,
      "Osom": 2780,
      "Oudan": 2781,
      "Ps": 2782,
      "Py": 2783,
      "Pr": 2784,
      "P.": 2785,
      "Pat": 2786,
      "Pet": 2787,
      "Pand": 2788,
      "Pero": 2789,
      "Pers": 2790,
      "Piz": 2791,
      "Pik": 2792,
      "Pian": 2793,
      "Port": 2794,
      "Paj": 2795,
      "Poo": 2796,
      "Poko": 2797,
      "Pee": 2798,
      "Pred": 2799,
      "Pict": 2800,
      "Puss": 2801,
      "Pokkun": 2802,
      "Q:": 2803,
      "Q*": 2804,
      "Qix": 2805,
      "Ru": 2806,
      "Ry": 2807,
      "RP": 2808,
      "R.": 2809,
      "Rat": 2810,
      "Roku": 2811,
      "Rens": 2812,
      "Ragon": 2813,
      "Rest": 2814,
      "Ros": 2815,
      "Roc": 2816,
      "Rop": 2817,
      "Right": 2818,
      "Rek": 2819,
      "Rab": 2820,
      "Rage": 2821,
      "Roy": 2822,
      "Sq": 2823,
      "ST": 2824,
      "SW": 2825,
      "SO": 2826,
      "Sin": 2827,
      "Sou": 2828,
      "Sam": 2829,
      "Sas": 2830,
      "Set": 2831,
      "Sac": 2832,
      "Ski": 2833,
      "Sand": 2834,
      "Sill": 2835,
      "Souk": 2836,
      "Sev": 2837,
      "Side": 2838,
      "Sav": 2839,
      "Syou": 2840,
      "Saki": 2841,
      "S.C.": 2842,
      "Soukou": 2843,
      "Section": 2844,
      "Saga:": 2845,
      "Soch": 2846,
      "SightJP": 2847,
      "Sousai": 2848,
      "T.": 2849,
      "TV": 2850,
      "TM": 2851,
      "Tam": 2852,
      "Tor": 2853,
      "Tad": 2854,
      "Tow": 2855,
      "Tob": 2856,
      "Tem": 2857,
      "Tatsu": 2858,
      "Ted": 2859,
      "Tashi": 2860,
      "Tower": 2861,
      "Tao": 2862,
      "Taos": 2863,
      "Tarou": 2864,
      "Tamura": 2865,
      "Tori": 2866,
      "Tact": 2867,
      "Tachi": 2868,
      "Um": 2869,
      "Uf": 2870,
      "Ushi": 2871,
      "Urus": 2872,
      "Utsu": 2873,
      "Vu": 2874,
      "Vi": 2875,
      "Ven": 2876,
      "Van": 2877,
      "Vis": 2878,
      "Vir": 2879,
      "Viv": 2880,
      "Vill": 2881,
      "Voy": 2882,
      "Vict": 2883,
      "Vice:": 2884,
      "Wo": 2885,
      "WC": 2886,
      "Wer": 2887,
      "Wur": 2888,
      "Wing": 2889,
      "Wall": 2890,
      "Wol": 2891,
      "Wre": 2892,
      "Wit": 2893,
      "Wand": 2894,
      "Wid": 2895,
      "West": 2896,
      "Will": 2897,
      "Wolf": 2898,
      "Wings": 2899,
      "Wedd": 2900,
      "Wester": 2901,
      "Wild": 2902,
      "Xe": 2903,
      "Xen": 2904,
      "XJP": 2905,
      "X-M": 2906,
      "Ya": 2907,
      "Yas": 2908,
      "Yaku": 2909,
      "Yuu": 2910,
      "Yos": 2911,
      "Yob": 2912,
      "Yatsu": 2913,
      "Yog": 2914,
      "Yie": 2915,
      "Yami": 2916,
      "Yoko": 2917,
      "Yarou": 2918,
      "Youn": 2919,
      "Yomi": 2920,
      "Yokai": 2921,
      "Yousai": 2922,
      "Zi": 2923,
      "Zy": 2924,
      "ZR": 2925,
      "Zan": 2926,
      "Zun": 2927,
      "Zetsu": 2928,
      "Zod": 2929,
      "Zami": 2930,
      "Zaur": 2931,
      "Zour": 2932,
      "Z-G": 2933,
      "an": 2934,
      "du": 2935,
      "dayo": 2936,
      "e-": 2937,
      "from": 2938,
      "hen": 2939,
      "kara": 2940,
      "na": 2941,
      "th": 2942,
      "Ōic": 2943,
      "##uz": 2944,
      "##u:": 2945,
      "##uur": 2946,
      "##uki": 2947,
      "##uke": 2948,
      "##uden": 2949,
      "##ull": 2950,
      "##uck": 2951,
      "##uchi": 2952,
      "##uaga": 2953,
      "##u-S": 2954,
      "##uya": 2955,
      "##u.:": 2956,
      "##uki:": 2957,
      "##ni": 2958,
      "##nō": 2959,
      "##nin": 2960,
      "##nou": 2961,
      "##nic": 2962,
      "##nit": 2963,
      "##nos": 2964,
      "##num": 2965,
      "##nant": 2966,
      "##ners": 2967,
      "##nown": 2968,
      "##nation": 2969,
      "##nia": 2970,
      "##neJP": 2971,
      "##nark": 2972,
      "##nov": 2973,
      "##jū": 2974,
      "##jà": 2975,
      "##jyu": 2976,
      "##jima": 2977,
      "##i!": 2978,
      "##iin": 2979,
      "##iou": 2980,
      "##isu": 2981,
      "##iis": 2982,
      "##i's": 2983,
      "##iant": 2984,
      "##ieg": 2985,
      "##ia:": 2986,
      "##ipp": 2987,
      "##ikyoku": 2988,
      "##ibit": 2989,
      "##iott": 2990,
      "##o-": 2991,
      "##o$": 2992,
      "##ole": 2993,
      "##o's": 2994,
      "##ook": 2995,
      "##oog": 2996,
      "##oard": 2997,
      "##oo:": 2998,
      "##o-kun": 2999,
      "##oact": 3000,
      "##oden:": 3001,
      "##tā": 3002,
      "##ten": 3003,
      "##tar": 3004,
      "##tat": 3005,
      "##tic": 3006,
      "##tri": 3007,
      "##tter": 3008,
      "##tana": 3009,
      "##tron": 3010,
      "##tsJP": 3011,
      "##tomo": 3012,
      "##totsu": 3013,
      "##tendo": 3014,
      "##ti's": 3015,
      "##so": 3016,
      "##sp": 3017,
      "##ser": 3018,
      "##sou": 3019,
      "##sil": 3020,
      "##sta": 3021,
      "##sley": 3022,
      "##sector": 3023,
      "##slot": 3024,
      "##sible": 3025,
      "##sell's": 3026,
      "##z:": 3027,
      "##zen": 3028,
      "##zan": 3029,
      "##zon": 3030,
      "##zor": 3031,
      "##zky": 3032,
      "##zone": 3033,
      "##zu:": 3034,
      "##zslot": 3035,
      "##e,": 3036,
      "##e?": 3037,
      "##eet": 3038,
      "##eur": 3039,
      "##eke": 3040,
      "##eeJP": 3041,
      "##ewolf": 3042,
      "##ebas": 3043,
      "##e-Pro": 3044,
      "##eo's": 3045,
      "##me": 3046,
      "##men": 3047,
      "##met": 3048,
      "##mad": 3049,
      "##mak": 3050,
      "##ment": 3051,
      "##metsu": 3052,
      "##mos": 3053,
      "##matsu": 3054,
      "##mers": 3055,
      "##mik": 3056,
      "##mare": 3057,
      "##master": 3058,
      "##mort": 3059,
      "##mint": 3060,
      "##mies": 3061,
      "##mmer": 3062,
      "##mings": 3063,
      "##mlins": 3064,
      "##h]": 3065,
      "##hJP": 3066,
      "##ham": 3067,
      "##hal": 3068,
      "##hall": 3069,
      "##hob": 3070,
      "##haw": 3071,
      "##hoid": 3072,
      "##hru": 3073,
      "##hanger": 3074,
      "##house": 3075,
      "##hyak": 3076,
      "##aF": 3077,
      "##aR": 3078,
      "##aM": 3079,
      "##aja": 3080,
      "##aut": 3081,
      "##aff": 3082,
      "##a-O": 3083,
      "##aeshi": 3084,
      "##ae!": 3085,
      "##auchi": 3086,
      "##pt": 3087,
      "##pe": 3088,
      "##pa": 3089,
      "##pl": 3090,
      "##pin": 3091,
      "##par": 3092,
      "##pou": 3093,
      "##pal": 3094,
      "##ple": 3095,
      "##puu": 3096,
      "##pok": 3097,
      "##pris": 3098,
      "##pha": 3099,
      "##pents": 3100,
      "##press": 3101,
      "##phoid": 3102,
      "##dan": 3103,
      "##din": 3104,
      "##down": 3105,
      "##dine": 3106,
      "##din'": 3107,
      "##doukai": 3108,
      "##dse": 3109,
      "##lg": 3110,
      "##lie": 3111,
      "##lif": 3112,
      "##lict": 3113,
      "##yz": 3114,
      "##yx": 3115,
      "##yō": 3116,
      "##yJP": 3117,
      "##yor": 3118,
      "##yle": 3119,
      "##y's": 3120,
      "##yand": 3121,
      "##yoku": 3122,
      "##yana": 3123,
      "##yrin": 3124,
      "##ybuster": 3125,
      "##yott": 3126,
      "##ypt": 3127,
      "##rd": 3128,
      "##ran": 3129,
      "##rou": 3130,
      "##run": 3131,
      "##ragon": 3132,
      "##rum": 3133,
      "##rong": 3134,
      "##ration": 3135,
      "##rond": 3136,
      "##-k": 3137,
      "##-H": 3138,
      "##-U": 3139,
      "##-tsu": 3140,
      "##-tte": 3141,
      "##-henJP": 3142,
      "##kin": 3143,
      "##kle": 3144,
      "##kki": 3145,
      "##kaku": 3146,
      "##k's": 3147,
      "##kos": 3148,
      "##kant": 3149,
      "##kame": 3150,
      "##ksh": 3151,
      "##kaJP": 3152,
      "##kori": 3153,
      "##kichi": 3154,
      "##koukai": 3155,
      "##known": 3156,
      "##ca": 3157,
      "##can": 3158,
      "##ces": 3159,
      "##cent": 3160,
      "##cken": 3161,
      "##cky": 3162,
      "##cia": 3163,
      "##code": 3164,
      "##g!": 3165,
      "##gh": 3166,
      "##gan": 3167,
      "##gar": 3168,
      "##gal": 3169,
      "##gle": 3170,
      "##ging": 3171,
      "##gos": 3172,
      "##gers": 3173,
      "##gby": 3174,
      "##gyo": 3175,
      "##goto": 3176,
      "##gake!!": 3177,
      "##gment": 3178,
      "##gaeshi": 3179,
      "##g-tte": 3180,
      "##D:": 3181,
      "##Don": 3182,
      "##Dragon": 3183,
      "##6-nen:": 3184,
      "##bs": 3185,
      "##be": 3186,
      "##bor": 3187,
      "##bai": 3188,
      "##bun": 3189,
      "##bur": 3190,
      "##bei": 3191,
      "##batsu": 3192,
      "##brain": 3193,
      "##bass": 3194,
      "##bee": 3195,
      "##bike": 3196,
      "##bus:": 3197,
      "##b-3": 3198,
      "##Ju": 3199,
      "##JaM": 3200,
      "##A.": 3201,
      "##AR": 3202,
      "##AT": 3203,
      "##AU": 3204,
      "##Land": 3205,
      "##ūsen": 3206,
      "##var": 3207,
      "##vei": 3208,
      "##ving": 3209,
      "##vit": 3210,
      "##ventur": 3211,
      "##vator": 3212,
      "##vino": 3213,
      "##vette": 3214,
      "##vice": 3215,
      "##voy": 3216,
      "##vaders": 3217,
      "##vaton": 3218,
      "##'en": 3219,
      "##SC": 3220,
      "##S/": 3221,
      "##Son": 3222,
      "##Sal": 3223,
      "##S!!": 3224,
      "##Stri": 3225,
      "##Spin": 3226,
      "##wn": 3227,
      "##wi": 3228,
      "##wan": 3229,
      "##wing": 3230,
      "##wart": 3231,
      "##wa:": 3232,
      "##wood": 3233,
      "##wler": 3234,
      "##II": 3235,
      "##Ike!": 3236,
      "##xt": 3237,
      "##xic": 3238,
      "##xder": 3239,
      "##xyz": 3240,
      "##fs": 3241,
      "##fé": 3242,
      "##fat": 3243,
      "##fes": 3244,
      "##fil": 3245,
      "##fari": 3246,
      "##fighter": 3247,
      "##fire": 3248,
      "##foot": 3249,
      "##field": 3250,
      "##fred": 3251,
      "##fhanger": 3252,
      "##flict": 3253,
      "##ōsh": 3254,
      "##ōnen": 3255,
      "##ō!!JP": 3256,
      "##9:": 3257,
      "##99:": 3258,
      "##Hed": 3259,
      "##Hare": 3260,
      "##2]": 3261,
      "##31": 3262,
      "##3][1": 3263,
      "##.W": 3264,
      "##.JP": 3265,
      "##.L.E.": 3266,
      "##Games": 3267,
      "##Bot": 3268,
      "##B.I.": 3269,
      "##Blaster": 3270,
      "##Board": 3271,
      "##RC": 3272,
      "##Runn": 3273,
      "##[h]": 3274,
      "##Tim": 3275,
      "##T.:": 3276,
      "##Thru": 3277,
      "##MP": 3278,
      "##Max": 3279,
      "##0°": 3280,
      "##17": 3281,
      "##1-2-3": 3282,
      "##4][1": 3283,
      "##Nin": 3284,
      "##Q.": 3285,
      "##/PAL": 3286,
      "##/1-2-3": 3287,
      "##O:": 3288,
      "##O.W": 3289,
      "##5]": 3290,
      "##Yu": 3291,
      "##Yard": 3292,
      "##EU": 3293,
      "##ED:": 3294,
      "##Zeal": 3295,
      "##*Bot": 3296,
      "##en:": 3297,
      "##ena": 3298,
      "##enbou": 3299,
      "##enron": 3300,
      "##enchi": 3301,
      "##en-Man": 3302,
      "##engers": 3303,
      "##ert": 3304,
      "##erou": 3305,
      "##erion": 3306,
      "##erPAL": 3307,
      "##erers": 3308,
      "##erub": 3309,
      "##eration": 3310,
      "##erlock": 3311,
      "##errill": 3312,
      "##er-H": 3313,
      "##an:": 3314,
      "##anan": 3315,
      "##anai": 3316,
      "##anle": 3317,
      "##anad": 3318,
      "##ansf": 3319,
      "##an-G": 3320,
      "##ancia": 3321,
      "##on:": 3322,
      "##ona": 3323,
      "##onia": 3324,
      "##oneJP": 3325,
      "##inu": 3326,
      "##inar": 3327,
      "##inari": 3328,
      "##inken": 3329,
      "##ination": 3330,
      "##in-K": 3331,
      "##iness": 3332,
      "##innit": 3333,
      "##invit": 3334,
      "##ars": 3335,
      "##ares": 3336,
      "##arai": 3337,
      "##arus": 3338,
      "##aro:": 3339,
      "##areru": 3340,
      "##arlie": 3341,
      "##arenbou": 3342,
      "##ouJP": 3343,
      "##ouou": 3344,
      "##ouki": 3345,
      "##ouri": 3346,
      "##ound": 3347,
      "##ouend": 3348,
      "##ouru": 3349,
      "##ou!!JP": 3350,
      "##ouhen": 3351,
      "##ouhenJP": 3352,
      "##ama": 3353,
      "##amaku": 3354,
      "##amec": 3355,
      "##amyn": 3356,
      "##amune": 3357,
      "##alom": 3358,
      "##alouk": 3359,
      "##head": 3360,
      "##oru": 3361,
      "##ors": 3362,
      "##oron": 3363,
      "##orge": 3364,
      "##ored": 3365,
      "##ornia": 3366,
      "##oro-": 3367,
      "##ormers": 3368,
      "##atar": 3369,
      "##atur": 3370,
      "##at's": 3371,
      "##ated": 3372,
      "##atto": 3373,
      "##ataJP": 3374,
      "##atron": 3375,
      "##atake": 3376,
      "##ateka": 3377,
      "##atell": 3378,
      "##es!": 3379,
      "##esis": 3380,
      "##esid": 3381,
      "##esars": 3382,
      "##aii": 3383,
      "##aima": 3384,
      "##ai-Kun": 3385,
      "##hip": 3386,
      "##ku:": 3387,
      "##kuma": 3388,
      "##kuman:": 3389,
      "##asu": 3390,
      "##aser": 3391,
      "##ason": 3392,
      "##asle": 3393,
      "##asma": 3394,
      "##eta": 3395,
      "##etle": 3396,
      "##etro": 3397,
      "##ete:": 3398,
      "##etta": 3399,
      "##etzky": 3400,
      "##acy:": 3401,
      "##ager": 3402,
      "##agem": 3403,
      "##agana": 3404,
      "##agaJP": 3405,
      "##agoJP": 3406,
      "##agutsu": 3407,
      "##agawa": 3408,
      "##agesJP": 3409,
      "##agedd": 3410,
      "##ague:": 3411,
      "Thexder": 3412,
      "##sule": 3413,
      "##sure": 3414,
      "##suko": 3415,
      "##suka": 3416,
      "##suneJP": 3417,
      "##unai": 3418,
      "##une:": 3419,
      "##unji": 3420,
      "##undam": 3421,
      "##leJP": 3422,
      "##lege": 3423,
      "##icle": 3424,
      "##ician": 3425,
      "##icross": 3426,
      "##icles": 3427,
      "##icFR": 3428,
      "##uri": 3429,
      "##urei": 3430,
      "##uranger": 3431,
      "##uryoku": 3432,
      "##urfs": 3433,
      "##eike!": 3434,
      "##ada": 3435,
      "##ades": 3436,
      "##adis": 3437,
      "##adaki": 3438,
      "##adox": 3439,
      "##addin": 3440,
      "##kiim": 3441,
      "##kita": 3442,
      "##kieJP": 3443,
      "##kiesJP": 3444,
      "##kiyak": 3445,
      "##kiryu": 3446,
      "##kitat": 3447,
      "##kista": 3448,
      "##kikki": 3449,
      "##road": 3450,
      "##roshi": 3451,
      "##royer": 3452,
      "Sting": 3453,
      "Stim": 3454,
      "Stack": 3455,
      "Stick": 3456,
      "Stones": 3457,
      "Stoker": 3458,
      "Stoog": 3459,
      "Staff": 3460,
      "Strong": 3461,
      "Stanle": 3462,
      "StoneJP": 3463,
      "##ing!": 3464,
      "##ingst": 3465,
      "##ingekiJP": 3466,
      "##oly": 3467,
      "##older": 3468,
      "##olonia": 3469,
      "##olated": 3470,
      "##akar": 3471,
      "##akou": 3472,
      "##ake:": 3473,
      "##akage": 3474,
      "##akae!": 3475,
      "##akkiyak": 3476,
      "##omp": 3477,
      "##omation": 3478,
      "##omane": 3479,
      "##rie": 3480,
      "##rix": 3481,
      "##uso": 3482,
      "##usa": 3483,
      "##us'": 3484,
      "##usei": 3485,
      "##usenJP": 3486,
      "##igami": 3487,
      "##igan's": 3488,
      "##teretsu": 3489,
      "##terland": 3490,
      "##rel": 3491,
      "##reki": 3492,
      "##remer": 3493,
      "##reaser": 3494,
      "##ilt": 3495,
      "##iti": 3496,
      "##itJP": 3497,
      "##itai": 3498,
      "##itt:": 3499,
      "Show": 3500,
      "Shut": 3501,
      "Shok": 3502,
      "Shog": 3503,
      "Shark": 3504,
      "Short": 3505,
      "Shred": 3506,
      "Shopp": 3507,
      "Shoukou": 3508,
      "Shank": 3509,
      "Shatterh": 3510,
      "Shōnen": 3511,
      "Shenron": 3512,
      "Sherlock": 3513,
      "Shan-G": 3514,
      "##is:": 3515,
      "##ister": 3516,
      "##isana": 3517,
      "##isher": 3518,
      "##isode": 3519,
      "##is-D": 3520,
      "##ishJP": 3521,
      "##aku[1": 3522,
      "Chop": 3523,
      "Chack": 3524,
      "Chub": 3525,
      "Chron": 3526,
      "Chase": 3527,
      "Chan's": 3528,
      "ChanJP": 3529,
      "Cherub": 3530,
      "Charlie": 3531,
      "Draw": 3532,
      "Druaga": 3533,
      "Drasle": 3534,
      "##ions": 3535,
      "##ionary": 3536,
      "##entai": 3537,
      "##okusen": 3538,
      "##peror": 3539,
      "##pereur": 3540,
      "##ida": 3541,
      "##ided": 3542,
      "##idase": 3543,
      "##ote": 3544,
      "##otan": 3545,
      "##otog": 3546,
      "##ots:": 3547,
      "##oton:": 3548,
      "Spect": 3549,
      "Spond": 3550,
      "Sprin": 3551,
      "Spider": 3552,
      "Spike": 3553,
      "Suke": 3554,
      "Sull": 3555,
      "Sugi": 3556,
      "Suik": 3557,
      "Sugor": 3558,
      "Summer": 3559,
      "Supok": 3560,
      "##ecJP": 3561,
      "##ecap": 3562,
      "##ens'": 3563,
      "##enste": 3564,
      "##esta": 3565,
      "Dragons": 3566,
      "Dragon's": 3567,
      "DragonFR": 3568,
      "DragonStri": 3569,
      "DragonNin": 3570,
      "##imal": 3571,
      "##iminator": 3572,
      "##os:": 3573,
      "##ossible": 3574,
      "##occh": 3575,
      "##ochan": 3576,
      "##ocross": 3577,
      "##ochou": 3578,
      "##geki": 3579,
      "##geki!": 3580,
      "Daisen": 3581,
      "Daish": 3582,
      "Daima": 3583,
      "Daikai": 3584,
      "Daimei": 3585,
      "Dai-2": 3586,
      "Daitō": 3587,
      "Daikou": 3588,
      "Daiva": 3589,
      "Daimak": 3590,
      "Daihyak": 3591,
      "Daiyō": 3592,
      "Daikoukai": 3593,
      "##lder": 3594,
      "##ld's": 3595,
      "##ken-D": 3596,
      "##kenbutsu": 3597,
      "Superman": 3598,
      "Warwolf": 3599,
      "##oby": 3600,
      "##ober": 3601,
      "##obetro": 3602,
      "##uma": 3603,
      "##umbus:": 3604,
      "##ra:": 3605,
      "##raJP": 3606,
      "##ball:": 3607,
      "##ball-bu": 3608,
      "##ops": 3609,
      "##opia": 3610,
      "##opiJP": 3611,
      "##ophob": 3612,
      "##opoly": 3613,
      "##iracy:": 3614,
      "##antum": 3615,
      "##chū": 3616,
      "##chJP": 3617,
      "##chuu": 3618,
      "##chab": 3619,
      "##chart": 3620,
      "##cha!": 3621,
      "##chokusen": 3622,
      "Ninden": 3623,
      "Nintendo": 3624,
      "Ninpou": 3625,
      "##jaPAL": 3626,
      "##javentur": 3627,
      "##yuudenJP": 3628,
      "Proving": 3629,
      "Profes": 3630,
      "Bashi": 3631,
      "Maki": 3632,
      "Majin": 3633,
      "Majou": 3634,
      "Majō": 3635,
      "Maze": 3636,
      "Mayor": 3637,
      "Mabor": 3638,
      "Mafat": 3639,
      "Majaventur": 3640,
      "Word": 3641,
      "Worksh": 3642,
      "##denashi": 3643,
      "Adventure:": 3644,
      "##senden": 3645,
      "##sence": 3646,
      "##senjou": 3647,
      "##ackout": 3648,
      "World:": 3649,
      "World!!": 3650,
      "WorldRunn": 3651,
      "##PALDragon": 3652,
      "##ndrom": 3653,
      "##ndball:": 3654,
      "##shade": 3655,
      "##shoe": 3656,
      "##emaru": 3657,
      "##eman's": 3658,
      "##emitsu": 3659,
      "NinjaPAL": 3660,
      "Ninja-Kun:": 3661,
      "##utt": 3662,
      "##utochou": 3663,
      "##okkori": 3664,
      "##okotan": 3665,
      "##!!!": 3666,
      "##ayoshi": 3667,
      "##eroo$": 3668,
      "Blod": 3669,
      "Blaz": 3670,
      "Blaster": 3671,
      "Blader": 3672,
      "Blades": 3673,
      "##jinJP": 3674,
      "##jinru": 3675,
      "##odus": 3676,
      "##eko": 3677,
      "##eker": 3678,
      "##man'": 3679,
      "##man's": 3680,
      "##atsu:": 3681,
      "##atsu-Kun:": 3682,
      "IIIPAL": 3683,
      "Family:": 3684,
      "FamilyJP": 3685,
      "Quint": 3686,
      "Quarth": 3687,
      "Quantum": 3688,
      "StarJP": 3689,
      "Starship": 3690,
      "Stargate": 3691,
      "Starfighter": 3692,
      "Bats": 3693,
      "Batch": 3694,
      "Monkey": 3695,
      "Montana": 3696,
      "Monomane": 3697,
      "Monopoly": 3698,
      "Sanma": 3699,
      "Sansei": 3700,
      "Sanct": 3701,
      "Sankan": 3702,
      "Sanpei": 3703,
      "Sannin": 3704,
      "Sanada": 3705,
      "##abe": 3706,
      "##abon": 3707,
      "##ablaster": 3708,
      "##abatake": 3709,
      "Shi:": 3710,
      "Ship": 3711,
      "ShiJP": 3712,
      "Shiku": 3713,
      "Shito": 3714,
      "Shijō": 3715,
      "Shiss": 3716,
      "Shiyou": 3717,
      "Shiten": 3718,
      "Shikin": 3719,
      "Shigoto": 3720,
      "##shiJP": 3721,
      "##shitsu": 3722,
      "##shiroku": 3723,
      "##ede": 3724,
      "##edom": 3725,
      "##eli": 3726,
      "##eline": 3727,
      "##elvaton": 3728,
      "##kyo": 3729,
      "##kyrie": 3730,
      "##ersal": 3731,
      "Clash": 3732,
      "Clif": 3733,
      "Gunjin": 3734,
      "Gunman": 3735,
      "Gun-D": 3736,
      "Gun-N": 3737,
      "Gun.S": 3738,
      "Gundan": 3739,
      "GunHed": 3740,
      "GunyuudenJP": 3741,
      "##ogane": 3742,
      "##aching": 3743,
      "Kidō": 3744,
      "Man:": 3745,
      "ManJP": 3746,
      "Manyuuki": 3747,
      "Mansell's": 3748,
      "Managem": 3749,
      "Meiji": 3750,
      "Meikyū": 3751,
      "Meikant": 3752,
      "##ardrop": 3753,
      "Isan": 3754,
      "Isaki": 3755,
      "Iseki": 3756,
      "Isolated": 3757,
      "Ark": 3758,
      "Arashi": 3759,
      "Arct": 3760,
      "Artel": 3761,
      "Argus": 3762,
      "Argos": 3763,
      "Arkista": 3764,
      "Arremer": 3765,
      "Game:": 3766,
      "Senkan": 3767,
      "Senjo": 3768,
      "Senkou": 3769,
      "Sengou": 3770,
      "Senryaku": 3771,
      "Senbatsu": 3772,
      "Senkyo": 3773,
      "into": 3774,
      "##land:": 3775,
      "##landPAL": 3776,
      "##landers": 3777,
      "##ryū": 3778,
      "##ryō": 3779,
      "##ryou": 3780,
      "WarriorJP": 3781,
      "Warriors:": 3782,
      "##ubalouk": 3783,
      "##jiJP": 3784,
      "##jikuu": 3785,
      "##jikitat": 3786,
      "##jiraJP": 3787,
      "##aru-kun": 3788,
      "Shinden": 3789,
      "Shinji": 3790,
      "Shinwa": 3791,
      "Shin-Chan:": 3792,
      "Shin'en": 3793,
      "Shinwa:": 3794,
      "Shinsenden": 3795,
      "Shinjinru": 3796,
      "Deal": 3797,
      "Depp": 3798,
      "Deza": 3799,
      "De-B": 3800,
      "Death": 3801,
      "Debi": 3802,
      "Debur": 3803,
      "Forces": 3804,
      "Foreman's": 3805,
      "Tenka": 3806,
      "Tenmei": 3807,
      "Tengu": 3808,
      "Tenkū": 3809,
      "##ends": 3810,
      "Baseball:": 3811,
      "BaseballJP": 3812,
      "BallJP": 3813,
      "Balloon": 3814,
      "Ballbl": 3815,
      "BallPALDragon": 3816,
      "Case": 3817,
      "Castel": 3818,
      "Gold": 3819,
      "Golden": 3820,
      "##izon": 3821,
      "##ized": 3822,
      "##lls": 3823,
      "##llwin": 3824,
      "##adiator": 3825,
      "Quest:": 3826,
      "QuestJP": 3827,
      "Boat": 3828,
      "Boots:": 3829,
      "Booby": 3830,
      "Dough": 3831,
      "Douchuu": 3832,
      "DoushiJP": 3833,
      "DoujiJP": 3834,
      "George": 3835,
      "Sense": 3836,
      "Sensha": 3837,
      "Teyand": 3838,
      "Teaching": 3839,
      "Teardrop": 3840,
      "Yakyū": 3841,
      "##ive": 3842,
      "##ivan": 3843,
      "##ivan's": 3844,
      "##iversal": 3845,
      "##teku": 3846,
      "##goden": 3847,
      "##goyle": 3848,
      "Mahou": 3849,
      "MahaR": 3850,
      "Gojū": 3851,
      "Gozon": 3852,
      "GojiraJP": 3853,
      "Kyū": 3854,
      "Kyof": 3855,
      "Kyōsh": 3856,
      "Kyatto": 3857,
      "Magnum": 3858,
      "MagMax": 3859,
      "##star": 3860,
      "##stem": 3861,
      "##ashii": 3862,
      "##illa": 3863,
      "YakyuuJP": 3864,
      "Yakyuuban": 3865,
      "Yakyuubu": 3866,
      "Chie": 3867,
      "Chiyon": 3868,
      "Chibi": 3869,
      "ChikaiJP": 3870,
      "Chicken": 3871,
      "Chiisana": 3872,
      "Child's": 3873,
      "HeroJP": 3874,
      "Jikū": 3875,
      "##uder": 3876,
      "##oola": 3877,
      "##ketsu!": 3878,
      "##gi:": 3879,
      "##giJP": 3880,
      "GaidenJP": 3881,
      "Consp": 3882,
      "Concent": 3883,
      "Convoy": 3884,
      "Conflict": 3885,
      "Conan:": 3886,
      "Fight!": 3887,
      "Inbou": 3888,
      "Intr": 3889,
      "Insector": 3890,
      "Invaders": 3891,
      "Infil": 3892,
      "Moeru": 3893,
      "Moe-Pro": 3894,
      "Moai-Kun": 3895,
      "Pacif": 3896,
      "Pac-Land": 3897,
      "SDF": 3898,
      "##bert": 3899,
      "##berland": 3900,
      "##bereke": 3901,
      "##ashJP": 3902,
      "##ashBall": 3903,
      "Islands": 3904,
      "Island:": 3905,
      "Islands:": 3906,
      "Mahjong:": 3907,
      "Magic:": 3908,
      "Magician": 3909,
      "Antic": 3910,
      "Animal": 3911,
      "Fighters": 3912,
      "FighterJP": 3913,
      "FightersPAL": 3914,
      "FightersJP": 3915,
      "Kara": 3916,
      "Karnov": 3917,
      "Karateka": 3918,
      "Land:": 3919,
      "LandJP": 3920,
      "Plato": 3921,
      "Plasma": 3922,
      "Roban": 3923,
      "Robin": 3924,
      "Robocc": 3925,
      "Robowar": 3926,
      "Saiyū": 3927,
      "Saizou": 3928,
      "Taikyoku": 3929,
      "Taikai": 3930,
      "Taiketsu!": 3931,
      "Turric": 3932,
      "##moke": 3933,
      "##azer": 3934,
      "##ppon": 3935,
      "##ppet": 3936,
      "##pple": 3937,
      "##ord:": 3938,
      "##oshii": 3939,
      "Wars[e]": 3940,
      "WarriorsPAL": 3941,
      "Amagon": 3942,
      "Amida": 3943,
      "BuJP": 3944,
      "Buck": 3945,
      "Bujutsu": 3946,
      "Build": 3947,
      "Bucky": 3948,
      "Bug-tte": 3949,
      "Built": 3950,
      "Bullwin": 3951,
      "Capsule": 3952,
      "Hyaku": 3953,
      "Hyru": 3954,
      "Hyout": 3955,
      "Hyakkiyak": 3956,
      "Hyokkori": 3957,
      "KenJP": 3958,
      "Kenzan": 3959,
      "Kenbun": 3960,
      "Kengoden": 3961,
      "Kaidou": 3962,
      "Kaizoku": 3963,
      "Kaisou": 3964,
      "Kun:": 3965,
      "Misshitsu": 3966,
      "Rock:": 3967,
      "Rocket": 3968,
      "Rockin'": 3969,
      "Rockete": 3970,
      "RockBoard": 3971,
      "Tako": 3972,
      "Takeru": 3973,
      "##eyuke": 3974,
      "##eves": 3975,
      "##der!": 3976,
      "##uraJP": 3977,
      "Challenger": 3978,
      "##kyoku:": 3979,
      "Gundam:": 3980,
      "Golf:": 3981,
      "Golf-k": 3982,
      "Gekijō": 3983,
      "Gekishin": 3984,
      "Gekitotsu": 3985,
      "Gekimad": 3986,
      "Gekikame": 3987,
      "Monogatari:": 3988,
      "Flame": 3989,
      "Flight": 3990,
      "Flip": 3991,
      "Flame:": 3992,
      "Flappy": 3993,
      "FlashJP": 3994,
      "Ikou": 3995,
      "Ikki": 3996,
      "Ikkoku": 3997,
      "Ikinari": 3998,
      "Keiji": 3999,
      "Keikaku": 4000,
      "MetaF": 4001,
      "Nepal": 4002,
      "Next": 4003,
      "Neko:": 4004,
      "Onyan": 4005,
      "Onna": 4006,
      "OnesJP": 4007,
      "Oniis": 4008,
      "Onyx": 4009,
      "Ongaeshi": 4010,
      "Races": 4011,
      "Race:": 4012,
      "Solar": 4013,
      "Solbrain": 4014,
      "Satsui": 4015,
      "Toxic": 4016,
      "Thing": 4017,
      "Thrill": 4018,
      "That's": 4019,
      "Trick": 4020,
      "Tracy": 4021,
      "Truck": 4022,
      "Transf": 4023,
      "Tour": 4024,
      "Toujin": 4025,
      "Touhou": 4026,
      "Tataki": 4027,
      "Tatake!!": 4028,
      "Tatakae!": 4029,
      "Wrath": 4030,
      "##jouJP": 4031,
      "##soners": 4032,
      "##00-N": 4033,
      "##ouse:": 4034,
      "##amix": 4035,
      "##astic": 4036,
      "##icket": 4037,
      "Daisan": 4038,
      "Senshi:": 4039,
      "Legends": 4040,
      "Legendary": 4041,
      "Legend..": 4042,
      "Mutants": 4043,
      "Stadium:": 4044,
      "Alley": 4045,
      "Alpha": 4046,
      "Alfred": 4047,
      "Aladdin": 4048,
      "Cresta": 4049,
      "Crackout": 4050,
      "Cricket": 4051,
      "Dual": 4052,
      "Duel": 4053,
      "Exes": 4054,
      "Exed": 4055,
      "Express": 4056,
      "Exerion": 4057,
      "Exodus": 4058,
      "Greg": 4059,
      "Green": 4060,
      "Gremlins": 4061,
      "Kiki": 4062,
      "Kiri": 4063,
      "Kiyu": 4064,
      "Kiroku": 4065,
      "Kiwi": 4066,
      "Kieta": 4067,
      "Kiteretsu": 4068,
      "Kikenbutsu": 4069,
      "Myouou": 4070,
      "Mario's": 4071,
      "Scav": 4072,
      "Scrum": 4073,
      "Seimei": 4074,
      "Seiza": 4075,
      "Seisha": 4076,
      "Soccer:": 4077,
      "##sional": 4078,
      "##yuku": 4079,
      "##yuden": 4080,
      "##cking": 4081,
      "##gokuJP": 4082,
      "##gokuban": 4083,
      "##bo:": 4084,
      "##board": 4085,
      "##ushima": 4086,
      "Shoutai": 4087,
      "Jiken!": 4088,
      "Pachicom": 4089,
      "Pachio-kun": 4090,
      "Satsujin:": 4091,
      "CityJP": 4092,
      "Doh": 4093,
      "Dosuko": 4094,
      "FinishJP": 4095,
      "Fantastic": 4096,
      "Gyrus": 4097,
      "Gyrom": 4098,
      "Ground": 4099,
      "Gretzky": 4100,
      "Genpei": 4101,
      "Genchou": 4102,
      "Generation": 4103,
      "Genesis": 4104,
      "GenjinJP": 4105,
      "Igo:": 4106,
      "Joy": 4107,
      "Joe's": 4108,
      "Megaton": 4109,
      "Park": 4110,
      "Parsley": 4111,
      "Parareru": 4112,
      "Paradis": 4113,
      "Paris-D": 4114,
      "Ressen": 4115,
      "Tsurus": 4116,
      "##herJP": 4117,
      "##ronman'": 4118,
      "##kaidou": 4119,
      "##kaidō": 4120,
      "##byJP": 4121,
      "##assic": 4122,
      "##ake!": 4123,
      "##usha": 4124,
      "Castlequest": 4125,
      "Ultima:": 4126,
      "UltimaJP": 4127,
      "TurtlesPAL": 4128,
      "News": 4129,
      "NewZeal": 4130,
      "SoccerJP": 4131,
      "Soccer-henJP": 4132,
      "Dreamin'": 4133,
      "Aton": 4134,
      "Atom": 4135,
      "Fuzz": 4136,
      "FuusenJP": 4137,
      "Gannen": 4138,
      "Ganso": 4139,
      "Galg": 4140,
      "Galious": 4141,
      "Galaga:": 4142,
      "GalagaJP": 4143,
      "Galivan": 4144,
      "Gaku:": 4145,
      "Hishi": 4146,
      "Indy": 4147,
      "Indy:": 4148,
      "Indora": 4149,
      "Lee": 4150,
      "League:": 4151,
      "Meet": 4152,
      "Meets": 4153,
      "Micha": 4154,
      "Ouken": 4155,
      "Ouji": 4156,
      "Tombs": 4157,
      "Times": 4158,
      "Time:": 4159,
      "Untou": 4160,
      "Unser": 4161,
      "Unknown": 4162,
      "Uncan": 4163,
      "Uninvit": 4164,
      "UnitJP": 4165,
      "Unchart": 4166,
      "Universal": 4167,
      "##oid:": 4168,
      "##lywood": 4169,
      "##youJP": 4170,
      "##youden": 4171,
      "##ruction": 4172,
      "##ko-Chan:": 4173,
      "##kanaru": 4174,
      "##kokuban": 4175,
      "ShadowPAL": 4176,
      "Shadowgate": 4177,
      "Force:": 4178,
      "Tatakai!!JP": 4179,
      "Shougi:": 4180,
      "Fantasm": 4181,
      "Fantasy:": 4182,
      "School:": 4183,
      "SpecialJP": 4184,
      "Best:": 4185,
      "Cars": 4186,
      "Carrier": 4187,
      "Carmen": 4188,
      "Ghoul": 4189,
      "Gokuuden": 4190,
      "Jinzou": 4191,
      "Mindse": 4192,
      "Minkiim": 4193,
      "Minelvaton": 4194,
      "Miru": 4195,
      "Macho": 4196,
      "Pugs": 4197,
      "Puzslot": 4198,
      "Seoul": 4199,
      "Season": 4200,
      "Seicross": 4201,
      "Sekiryu": 4202,
      "Swamp": 4203,
      "Sweet": 4204,
      "Silent": 4205,
      "Silius": 4206,
      "Silva": 4207,
      "Tera": 4208,
      "Terra": 4209,
      "Terry": 4210,
      "Terao": 4211,
      "Yume:": 4212,
      "##jectJP": 4213,
      "##ifornia": 4214,
      "##san-tsu": 4215,
      "##hanized": 4216,
      "##retti's": 4217,
      "##-Prix": 4218,
      "##-Putt": 4219,
      "##-Star": 4220,
      "##ville": 4221,
      "##atacho:": 4222,
      "Story:": 4223,
      "Basket:": 4224,
      "BasketJP": 4225,
      "Sansara": 4226,
      "Classics": 4227,
      "KidsJP": 4228,
      "Meijinsen": 4229,
      "'92JP": 4230,
      "TennisPAL": 4231,
      "IkariJP": 4232,
      "Greatest": 4233,
      "Wrestling!!": 4234,
      "DaiboukenJP": 4235,
      "Beast": 4236,
      "Be-B": 4237,
      "Beaut": 4238,
      "Beetle": 4239,
      "Bombl": 4240,
      "Breed": 4241,
      "Bōken:": 4242,
      "Destination": 4243,
      "Destroyer": 4244,
      "Destruction": 4245,
      "Dynowar": 4246,
      "Dynatron": 4247,
      "Dynablaster": 4248,
      "Dynamix": 4249,
      "Embass": 4250,
      "Emperor": 4251,
      "Elm": 4252,
      "Elite": 4253,
      "Elway": 4254,
      "Elnark": 4255,
      "Elrond": 4256,
      "Eliminator": 4257,
      "Firebird": 4258,
      "Firehouse": 4259,
      "Footy": 4260,
      "Honey": 4261,
      "Honmei": 4262,
      "Honshou": 4263,
      "Holy": 4264,
      "Holes": 4265,
      "Hollywood": 4266,
      "Hiragana": 4267,
      "Hirake!": 4268,
      "Jumbo": 4269,
      "Jr.:": 4270,
      "Jr.'s": 4271,
      "KagiJP": 4272,
      "Kaguya": 4273,
      "Kagerou": 4274,
      "Kagaku[1": 4275,
      "Kitte": 4276,
      "Kitaro": 4277,
      "Kitaro:": 4278,
      "KitsuneJP": 4279,
      "Madara": 4280,
      "Madness": 4281,
      "Madoola": 4282,
      "Maru:": 4283,
      "Maruko-Chan:": 4284,
      "Raf": 4285,
      "Race!": 4286,
      "RaceJP": 4287,
      "RoadBlaster": 4288,
      "Snoop": 4289,
      "Slam": 4290,
      "Slader": 4291,
      "Slalom": 4292,
      "Simon's": 4293,
      "Tanken": 4294,
      "Tank:": 4295,
      "Volgu": 4296,
      "Water": 4297,
      "Waters": 4298,
      "Wataru": 4299,
      "Yabou": 4300,
      "Yabō!!JP": 4301,
      "Yaburi": 4302,
      "Zenin": 4303,
      "Zenebas": 4304,
      "Zenbei": 4305,
      "Zengokuban": 4306,
      "Zenkokuban": 4307,
      "##meihen": 4308,
      "##mandy": 4309,
      "##ah's": 4310,
      "##ahage": 4311,
      "##gspl": 4312,
      "##verine": 4313,
      "##ffiti": 4314,
      "##acular": 4315,
      "Strike": 4316,
      "Strider": 4317,
      "Chōjin": 4318,
      "Chou-W": 4319,
      "Chousenjou": 4320,
      "Choujikuu": 4321,
      "##obuneJP": 4322,
      "ProjectJP": 4323,
      "##okojuku": 4324,
      "##ode!": 4325,
      "Mission:": 4326,
      "MissionJP": 4327,
      "MissionPAL": 4328,
      "RockmanJP": 4329,
      "DuckJP": 4330,
      "Mysteries": 4331,
      "Rescue:": 4332,
      "SecretJP": 4333,
      "Akuma-kun": 4334,
      "Ghosts": 4335,
      "1999:": 4336,
      "1931": 4337,
      "13th": 4338,
      "Ban!!": 4339,
      "BankaJP": 4340,
      "Bananan": 4341,
      "Barbie": 4342,
      "Barcode": 4343,
      "Barrel": 4344,
      "Bound": 4345,
      "Boulder": 4346,
      "Badmint": 4347,
      "Café": 4348,
      "Caesars": 4349,
      "Cycle": 4350,
      "Crayon": 4351,
      "Digger": 4352,
      "Darkman": 4353,
      "Darkness": 4354,
      "Darkwing": 4355,
      "Earthstar": 4356,
      "Fuuin": 4357,
      "Fuuin:": 4358,
      "F-15": 4359,
      "F-117": 4360,
      "Field:": 4361,
      "Hole": 4362,
      "Hoi!": 4363,
      "Hoops": 4364,
      "Heat": 4365,
      "Heart": 4366,
      "Hebereke": 4367,
      "Hakase": 4368,
      "Hakken-D": 4369,
      "HakobuneJP": 4370,
      "Hockey-bu": 4371,
      "Jackal": 4372,
      "Jackson": 4373,
      "Kamigami": 4374,
      "Kabuki:": 4375,
      "Kabutochou": 4376,
      "LoloJP": 4377,
      "Muscle": 4378,
      "Musician": 4379,
      "Mita": 4380,
      "Niji": 4381,
      "Niki:": 4382,
      "Niyott": 4383,
      "Nippon": 4384,
      "Nankyoku": 4385,
      "Nankoku": 4386,
      "Nanya": 4387,
      "Nightmare": 4388,
      "Nightshade": 4389,
      "Oten": 4390,
      "Otaku": 4391,
      "Otokojuku": 4392,
      "Pin*Bot": 4393,
      "Punisher": 4394,
      "Renju": 4395,
      "Renzoku": 4396,
      "Rai!": 4397,
      "Raid": 4398,
      "Raios": 4399,
      "Radical": 4400,
      "Roll": 4401,
      "Rolling": 4402,
      "RallyJP": 4403,
      "Surpris": 4404,
      "Tetra": 4405,
      "Trevino": 4406,
      "Win,": 4407,
      "Winter": 4408,
      "Winning": 4409,
      "Winners": 4410,
      "Yoshi's": 4411,
      "YoshiPAL": 4412,
      "##ipation": 4413,
      "##ipede": 4414,
      "##ofuji": 4415,
      "##ty's": 4416,
      "##linsPAL": 4417,
      "##-Oh": 4418,
      "##-Ou-S": 4419,
      "##gerTim": 4420,
      "##gerland:": 4421,
      "##.C.L.E.": 4422,
      "##aldlandPAL": 4423,
      "##ettekita": 4424,
      "##ley's": 4425,
      "##redible": 4426,
      "##itebike": 4427,
      "Chuuou": 4428,
      "Chuuka": 4429,
      "Chuugen": 4430,
      "DraculaJP": 4431,
      "Sport!": 4432,
      "Quiz:": 4433,
      "Shirokuma": 4434,
      "Fortress": 4435,
      "Fortune:": 4436,
      "BoxingJP": 4437,
      "Team[e]": 4438,
      "RacingJP": 4439,
      "RacingPAL": 4440,
      "Thundercade": 4441,
      "Thunderbird": 4442,
      "Bros.JP": 4443,
      "Gyakushū": 4444,
      "Gyakushū!": 4445,
      "Grand-Prix": 4446,
      "Swords": 4447,
      "ClassicPAL": 4448,
      "BreakThru": 4449,
      "FootballJP": 4450,
      "Jump:": 4451,
      "Jumpin'": 4452,
      "Dodgeball-bu": 4453,
      "Asyl": 4454,
      "Asmik": 4455,
      "Abarenbou": 4456,
      "Abunai": 4457,
      "Abadox": 4458,
      "Absence": 4459,
      "Asteka": 4460,
      "Astyana": 4461,
      "Back[e]": 4462,
      "Billy": 4463,
      "Bill's": 4464,
      "Dennou": 4465,
      "Dan:": 4466,
      "Danny": 4467,
      "Desu.:": 4468,
      "Desert": 4469,
      "Die!": 4470,
      "Demons": 4471,
      "Demonhead": 4472,
      "Fist": 4473,
      "Guerrill": 4474,
      "Guided": 4475,
      "Glov": 4476,
      "Glory": 4477,
      "Globetro": 4478,
      "Gladiator": 4479,
      "Gods": 4480,
      "Harlem": 4481,
      "Harrier": 4482,
      "Hime": 4483,
      "Himitsu": 4484,
      "Hiking": 4485,
      "Idol": 4486,
      "Idemitsu": 4487,
      "Ice:": 4488,
      "JuJu": 4489,
      "Juvei": 4490,
      "Juuryoku": 4491,
      "Jungle": 4492,
      "Kerori": 4493,
      "Lord:": 4494,
      "Motor": 4495,
      "Mottomo": 4496,
      "Motocross": 4497,
      "MotherJP": 4498,
      "Norman's": 4499,
      "Normandy": 4500,
      "Nakayo": 4501,
      "Nakayoshi": 4502,
      "Opa-O": 4503,
      "Obake": 4504,
      "Obake:": 4505,
      "Obocch": 4506,
      "ObjectJP": 4507,
      "Pole": 4508,
      "Point": 4509,
      "Rush:": 4510,
      "Rush'n": 4511,
      "Serial": 4512,
      "Series": 4513,
      "Serpents": 4514,
      "Service": 4515,
      "Skyhaw": 4516,
      "Tales": 4517,
      "Tale:": 4518,
      "Total": 4519,
      "Totally": 4520,
      "Valiant": 4521,
      "Valhall": 4522,
      "Valis:": 4523,
      "Valkyrie": 4524,
      "Videomation": 4525,
      "Yuushi": 4526,
      "YuYu": 4527,
      "Yuurei": 4528,
      "Yuusha": 4529,
      "Yamato": 4530,
      "##juice": 4531,
      "##aurant": 4532,
      "##-Man:": 4533,
      "##[13][1": 4534,
      "##ori-kun": 4535,
      "##athlon": 4536,
      "##eteers": 4537,
      "##actic": 4538,
      "China": 4539,
      "DaibōkenJP": 4540,
      "##shinkyoku:": 4541,
      "'90:": 4542,
      "Devilman": 4543,
      "Formation": 4544,
      "Goemon!": 4545,
      "Control": 4546,
      "BugsJP": 4547,
      "Hyde": 4548,
      "Gekitou!!": 4549,
      "Keiba:": 4550,
      "Keibitai": 4551,
      "TokiJP": 4552,
      "BrotherJP": 4553,
      "Wizardry:": 4554,
      "'88JP": 4555,
      "Bird:": 4556,
      "Bird's": 4557,
      "Birdie": 4558,
      "ChōsenJP": 4559,
      "Chōsenjō": 4560,
      "Cyberball": 4561,
      "Crazyland": 4562,
      "PinballJP": 4563,
      "Surfer": 4564,
      "Surfari": 4565,
      "Dracula's": 4566,
      "Diamond's": 4567,
      "Eagle:": 4568,
      "Jajamaru:": 4569,
      "Momotarou": 4570,
      "StudioJP": 4571,
      "Fukkatsu:": 4572,
      "Akashi": 4573,
      "Akagawa": 4574,
      "Akakage": 4575,
      "Athena": 4576,
      "All-Pro": 4577,
      "All-Star": 4578,
      "Bigfoot": 4579,
      "Bokutte": 4580,
      "BayJP": 4581,
      "Bayou": 4582,
      "Bartman": 4583,
      "Chester": 4584,
      "Color": 4585,
      "College": 4586,
      "Columbus:": 4587,
      "Days": 4588,
      "Eiyuden": 4589,
      "Egypt": 4590,
      "Eggspl": 4591,
      "Eggerland:": 4592,
      "Eikou:": 4593,
      "Framed": 4594,
      "Frank": 4595,
      "Fratell": 4596,
      "Gaou": 4597,
      "Graffiti": 4598,
      "Hihō": 4599,
      "Hiroshi": 4600,
      "Henbee": 4601,
      "Heiki": 4602,
      "Hottā": 4603,
      "Hototog": 4604,
      "Highway": 4605,
      "Ironsw": 4606,
      "Joust": 4607,
      "Jetman": 4608,
      "Jetman:": 4609,
      "Jetsons:": 4610,
      "Klown": 4611,
      "Klax": 4612,
      "KlashBall": 4613,
      "Kōmei": 4614,
      "Kōshien": 4615,
      "Kōryū": 4616,
      "Kouha": 4617,
      "Koufu": 4618,
      "Koushinkyoku:": 4619,
      "KageJP": 4620,
      "Kickle": 4621,
      "Koukousei": 4622,
      "Marble": 4623,
      "Marlin": 4624,
      "Marusa": 4625,
      "Moulin": 4626,
      "Mouryou": 4627,
      "MoriJP": 4628,
      "Morita": 4629,
      "Morphoid": 4630,
      "Masashi": 4631,
      "Masuz": 4632,
      "Masamune": 4633,
      "Mac:": 4634,
      "Macross": 4635,
      "Makes": 4636,
      "Maker:": 4637,
      "Makyouden": 4638,
      "Mechanized": 4639,
      "Makai-M": 4640,
      "Makaijima": 4641,
      "Noah's": 4642,
      "Naguur": 4643,
      "Nagagutsu": 4644,
      "Nagatacho:": 4645,
      "Nishiouend": 4646,
      "Photon:": 4647,
      "Pennant": 4648,
      "Panic": 4649,
      "PanicJP": 4650,
      "Ponkikki": 4651,
      "Prisoners": 4652,
      "Rouge": 4653,
      "Route": 4654,
      "Roundball:": 4655,
      "Reijō": 4656,
      "Reigen": 4657,
      "Reimeihen": 4658,
      "Romancia": 4659,
      "Ryuu-Ou-S": 4660,
      "Remote": 4661,
      "Radia": 4662,
      "Radiance": 4663,
      "Radioact": 4664,
      "River": 4665,
      "Rampage": 4666,
      "Running": 4667,
      "Safari": 4668,
      "Sore?": 4669,
      "Soreike!": 4670,
      "Soreyuke": 4671,
      "Sentaku": 4672,
      "Sabaku": 4673,
      "Squares": 4674,
      "Tōma": 4675,
      "Tōru": 4676,
      "Tōkaidō": 4677,
      "Target": 4678,
      "Trojan": 4679,
      "Trog!": 4680,
      "Trolls": 4681,
      "Triathlon": 4682,
      "Tensai": 4683,
      "Tokyo": 4684,
      "Tokkyū": 4685,
      "Tokoro-": 4686,
      "Tabou": 4687,
      "Tabibit": 4688,
      "Taboo:": 4689,
      "Upa": 4690,
      "UpJP": 4691,
      "Woods": 4692,
      "Woody": 4693,
      "Wakusei:": 4694,
      "Yūja": 4695,
      "Yūkai": 4696,
      "Yūenchi": 4697,
      "Yōkos": 4698,
      "Zoids": 4699,
      "##oki)": 4700,
      "##merin'": 4701,
      "##puck": 4702,
      "##dou-Oh": 4703,
      "##blade": 4704,
      "Stewart": 4705,
      "Shugyo": 4706,
      "SpiritsJP": 4707,
      "Mappy-Land": 4708,
      "Blob:": 4709,
      "Blobolonia": 4710,
      "BlobbyJP": 4711,
      "Shima:": 4712,
      "ShimaJP": 4713,
      "Armadill": 4714,
      "Armored": 4715,
      "Armagedd": 4716,
      "Defenders": 4717,
      "Boys:": 4718,
      "Kyonshis": 4719,
      "Kyonshizu:": 4720,
      "Connors": 4721,
      "Planeteers": 4722,
      "Touch:": 4723,
      "Excitebike": 4724,
      "WrestleMania:": 4725,
      "JohnJP": 4726,
      "Johnson's": 4727,
      "Galaxian": 4728,
      "Tomatoes": 4729,
      "Puzznic": 4730,
      "StormJP": 4731,
      "StoryPAL": 4732,
      "Snowboard": 4733,
      "Slayer:": 4734,
      "TwinBeeJP": 4735,
      "1942": 4736,
      "Bouken:": 4737,
      "BoukenJP": 4738,
      "Caper!": 4739,
      "Fuuun!": 4740,
      "Fuuunroku": 4741,
      "Rollerball": 4742,
      "RollerGames": 4743,
      "Rollerblade": 4744,
      "CrusadePAL": 4745,
      "GyakushuuJP": 4746,
      "ChineseJP": 4747,
      "FormulaJP": 4748,
      "ContraJP": 4749,
      "(Ge)[13][1": 4750,
      "Crystalis": 4751,
      "Countdown": 4752,
      "Nantettatte!!": 4753,
      "OokamiJP": 4754,
      "OlympicJP": 4755,
      "Satoru:": 4756,
      "VegasJP": 4757,
      "YorkPAL": 4758,
      "Avengers": 4759,
      "Avatar": 4760,
      "Andretti's": 4761,
      "Baltron": 4762,
      "Balubalouk": 4763,
      "Burai": 4764,
      "BurgerTim": 4765,
      "Baken": 4766,
      "Bakabon": 4767,
      "Bandai": 4768,
      "Bandit": 4769,
      "Baby": 4770,
      "Babel": 4771,
      "Bazook": 4772,
      "Bazolder": 4773,
      "Cookie": 4774,
      "CookieJP": 4775,
      "Demnos": 4776,
      "Demeo's": 4777,
      "Epsil": 4778,
      "Episode": 4779,
      "Feud": 4780,
      "Featur": 4781,
      "Fūma": 4782,
      "Fūunji": 4783,
      "FCJP": 4784,
      "Friday": 4785,
      "Friends": 4786,
      "Faria": 4787,
      "Faria:": 4788,
      "Fever": 4789,
      "Fever:": 4790,
      "FoxJP": 4791,
      "Fox's": 4792,
      "Garfield": 4793,
      "Gargoyle": 4794,
      "Gorby": 4795,
      "Gorilla": 4796,
      "Gotoku": 4797,
      "Gotcha!": 4798,
      "Goblins": 4799,
      "GoblinsPAL": 4800,
      "Haou": 4801,
      "Haja": 4802,
      "Hanjuku": 4803,
      "Hanabatake": 4804,
      "Houma": 4805,
      "Hououhen": 4806,
      "Hore": 4807,
      "Horizon": 4808,
      "Hito": 4809,
      "Hitler": 4810,
      "Haruka": 4811,
      "Harukanaru": 4812,
      "Hawk": 4813,
      "Hawaii": 4814,
      "Hakushaku": 4815,
      "Hakusho:": 4816,
      "Itadaki": 4817,
      "Itchokusen": 4818,
      "Image": 4819,
      "Immort": 4820,
      "Icchou": 4821,
      "Icarus": 4822,
      "Ippai": 4823,
      "Ippatsu:": 4824,
      "Jarvas": 4825,
      "Jarin-K": 4826,
      "Jongbou": 4827,
      "Jong[h]": 4828,
      "Judo": 4829,
      "Judgment": 4830,
      "Kinni": 4831,
      "Kuros:": 4832,
      "Kurogane": 4833,
      "Kiseru": 4834,
      "KisekiJP": 4835,
      "KhanJP": 4836,
      "Kawauso": 4837,
      "Laser": 4838,
      "Lethal": 4839,
      "Letterland": 4840,
      "Lightning": 4841,
      "Live": 4842,
      "Livingst": 4843,
      "Love": 4844,
      "Love:": 4845,
      "Mama": 4846,
      "Mamoru": 4847,
      "Matendo": 4848,
      "MatchJP": 4849,
      "Milk": 4850,
      "Milon's": 4851,
      "Masher": 4852,
      "MashouJP": 4853,
      "Mouse:": 4854,
      "Mousecap": 4855,
      "NASC": 4856,
      "NARC": 4857,
      "Nemo:": 4858,
      "NemoJP": 4859,
      "National": 4860,
      "Nichibutsu": 4861,
      "Order": 4862,
      "Orb-3": 4863,
      "Peak": 4864,
      "Pebble": 4865,
      "Police": 4866,
      "PoliceJP": 4867,
      "Pipe": 4868,
      "Pipeline": 4869,
      "Riki": 4870,
      "Ripple": 4871,
      "Range": 4872,
      "Ransom": 4873,
      "Rambo": 4874,
      "Ramen-Man": 4875,
      "Recall": 4876,
      "Recca": 4877,
      "Retsuden": 4878,
      "Retsuden:": 4879,
      "Racket": 4880,
      "Rackets": 4881,
      "RodLand": 4882,
      "Ruler": 4883,
      "Rules": 4884,
      "Smash": 4885,
      "Smurfs": 4886,
      "Syndrom": 4887,
      "System": 4888,
      "SonSon": 4889,
      "SonataJP": 4890,
      "Semeru": 4891,
      "Seminar": 4892,
      "Sixth": 4893,
      "Tyson's": 4894,
      "Type": 4895,
      "Tonjan": 4896,
      "Tonpuu": 4897,
      "Third": 4898,
      "Thieves": 4899,
      "Teiou": 4900,
      "Teikoku": 4901,
      "TigerJP": 4902,
      "Tiger-H": 4903,
      "Tetsuwan": 4904,
      "Tetsudou-Oh": 4905,
      "Urban": 4906,
      "Uranai": 4907,
      "Uchuu": 4908,
      "Uchūsen": 4909,
      "Who": 4910,
      "Whomp": 4911,
      "Wana!?JP": 4912,
      "Wario's": 4913,
      "Where": 4914,
      "Where's": 4915,
      "Waldo": 4916,
      "Waldo?": 4917,
      "Xevious": 4918,
      "Xeviou": 4919,
      "Yo!": 4920,
      "Yoake": 4921,
      "Yonku:": 4922,
      "Yonder!": 4923,
      "Yousei": 4924,
      "Youichi": 4925,
      "Zaihou": 4926,
      "Zaiteku": 4927,
      "##trator": 4928,
      "##swell's": 4929,
      "##sfar": 4930,
      "##hinwa": 4931,
      "##hinbo:": 4932,
      "##dōkaiJP": 4933,
      "##laus'": 4934,
      "##ylus": 4935,
      "##-Ji": 4936,
      "##,000,000": 4937,
      "##gorou": 4938,
      "##gust": 4939,
      "##worm": 4940,
      "##work:": 4941,
      "##.S.C.L.E.": 4942,
      "##Empereur": 4943,
      "##essen:": 4944,
      "Shuugou": 4945,
      "Shuugorou": 4946,
      "##issipp": 4947,
      "##otsuku": 4948,
      "Speak": 4949,
      "Speed": 4950,
      "Splash": 4951,
      "Splatterh": 4952,
      "Spot:": 4953,
      "SpotJP": 4954,
      "Daisuki": 4955,
      "Daisuki!": 4956,
      "Daiundoukai": 4957,
      "DaiundōkaiJP": 4958,
      "Warpman": 4959,
      "Warpship": 4960,
      "Bloody": 4961,
      "BloodJP": 4962,
      "BlowoutPAL": 4963,
      "BatmanJP": 4964,
      "Battleship": 4965,
      "Shirei!!JP": 4966,
      "Issho": 4967,
      "Isshū": 4968,
      "Archon": 4969,
      "Senseijutsu": 4970,
      "SensationJP": 4971,
      "Kyukyoku": 4972,
      "Kyuusei": 4973,
      "Kyoryu": 4974,
      "Kyorochan": 4975,
      "Increaser": 4976,
      "Incredible": 4977,
      "Internation": 4978,
      "Intergal": 4979,
      "Saigo!?JP": 4980,
      "Tairiku": 4981,
      "Tairiki": 4982,
      "Capcom's": 4983,
      "Kaimakuban": 4984,
      "Missing!": 4985,
      "Mississipp": 4986,
      "Metroid": 4987,
      "Solstice:": 4988,
      "SolsticeJP": 4989,
      "ScenarioJP": 4990,
      "Seikima": 4991,
      "Seikimatsu": 4992,
      "GyroJP": 4993,
      "Gyrodine": 4994,
      "Gen-San": 4995,
      "Gen-SanJP": 4996,
      "Tsurikichi": 4997,
      "TsurugiJP": 4998,
      "Tsubasa": 4999,
      "TsubasaJP": 5000,
      "'87JP": 5001,
      "MichiJP": 5002,
      "Mini-Putt": 5003,
      "Silkroad": 5004,
      "Silkworm": 5005,
      "Emblem": 5006,
      "Emblem:": 5007,
      "Snake's": 5008,
      "Simulation": 5009,
      "Simulator": 5010,
      "TankJP": 5011,
      "Volleyball": 5012,
      "Strikes": 5013,
      "Strikers": 5014,
      "Choujinrou": 5015,
      "Doraemon:": 5016,
      "Mitsuaki": 5017,
      "Mitsume": 5018,
      "Othello": 5019,
      "OthelloJP": 5020,
      "Asobi": 5021,
      "AsobiJP": 5022,
      "Designs": 5023,
      "Designs:": 5024,
      "Guardic": 5025,
      "Guardian": 5026,
      "Godzilla": 5027,
      "Godzilla:": 5028,
      "Gimmick!JP": 5029,
      "SalamanderJP": 5030,
      "SalamanderPAL": 5031,
      "TaleSpin": 5032,
      "Totsuzen": 5033,
      "Totsugeki!": 5034,
      "Weapons": 5035,
      "Cybernetic": 5036,
      "Cybernoid:": 5037,
      "Punch-Out!!": 5038,
      "Punch-Out!!JP": 5039,
      "Chessmaster": 5040,
      "Mech:": 5041,
      "Penguin-Kun": 5042,
      "Prix:": 5043,
      "USAJP": 5044,
      "Shufflepuck": 5045,
      "Connection:": 5046,
      "10-bai": 5047,
      "10-Yard": 5048,
      "2010:": 5049,
      "A-B-C/1-2-3": 5050,
      "Bikkuriman": 5051,
      "FerrariJP": 5052,
      "JidaiJP": 5053,
      "Jidaigeki": 5054,
      "Kirby:": 5055,
      "Kirby's": 5056,
      "KurauJP": 5057,
      "M.U.L.E.": 5058,
      "M.U.S.C.L.E.": 5059,
      "MedalJP": 5060,
      "Pirates:": 5061,
      "Pirates!": 5062,
      "V'BallJP": 5063,
      "Wackyland": 5064,
      "Wayne": 5065,
      "Wayne's": 5066,
      "ProbotectorPAL": 5067,
      "Battletoads[e]": 5068,
      "ExcellentJP": 5069,
      "ScheherazadeJP": 5070,
      "DuckTales[e]": 5071,
      "BarcelonaPAL": 5072,
      "Taruruto-Kun": 5073,
      "Taruruto-Kun:": 5074,
      "Mermaid:": 5075,
      "$1,000,000": 5076,
      "'Ironman'": 5077,
      "(Toki)": 5078,
      "-Shinwa": 5079,
      "1.000": 5080,
      "2100-N": 5081,
      "3bon": 5082,
      "4-Jin": 5083,
      "51st": 5084,
      "5+6-nen:": 5085,
      "5000:": 5086,
      "720°": 5087,
      "Aces:": 5088,
      "ASO:": 5089,
      "After": 5090,
      "ATF": 5091,
      "Alex": 5092,
      "Aigiin": 5093,
      "Achhi": 5094,
      "Ashura": 5095,
      "Ashibe": 5096,
      "Asterix": 5097,
      "Aussie": 5098,
      "Bonk's": 5099,
      "Binary": 5100,
      "Bingo": 5101,
      "Business": 5102,
      "Bakutō": 5103,
      "Bionic": 5104,
      "Bump": 5105,
      "Brawler": 5106,
      "Bang!JP": 5107,
      "Budokai": 5108,
      "Boukentai": 5109,
      "Barker": 5110,
      "Burner": 5111,
      "Butsuri": 5112,
      "Bokosuka": 5113,
      "B-Wings": 5114,
      "Bitaoshii": 5115,
      "Center": 5116,
      "California": 5117,
      "Corvette": 5118,
      "Curse": 5119,
      "Crown": 5120,
      "Crew": 5121,
      "Candle": 5122,
      "Cowboy": 5123,
      "Cocoron": 5124,
      "Cantona": 5125,
      "Cutie": 5126,
      "Cabal": 5127,
      "Cogswell's": 5128,
      "Cubicle": 5129,
      "Cartoon": 5130,
      "Clemens'": 5131,
      "Ceddie": 5132,
      "Cadillac": 5133,
      "Dōchū": 5134,
      "Déjà": 5135,
      "DoropiJP": 5136,
      "Dunk": 5137,
      "Dribble": 5138,
      "Dusty": 5139,
      "Dokugan": 5140,
      "Dummies": 5141,
      "Dirty": 5142,
      "DatsugokuJP": 5143,
      "Darts": 5144,
      "Dengeki": 5145,
      "Diver": 5146,
      "Davey": 5147,
      "Dropzone": 5148,
      "Dochuki": 5149,
      "Eyes": 5150,
      "Events": 5151,
      "Elevator": 5152,
      "Erika": 5153,
      "Eigo": 5154,
      "Elliott": 5155,
      "Emoyan": 5156,
      "Elysion": 5157,
      "Elements": 5158,
      "Freedom": 5159,
      "Felix": 5160,
      "Fang:": 5161,
      "Fudou": 5162,
      "Front": 5163,
      "Faxanad": 5164,
      "Factor": 5165,
      "Freeza": 5166,
      "Fester's": 5167,
      "GAMP": 5168,
      "Geimos": 5169,
      "Gomoku": 5170,
      "Giga": 5171,
      "Gumshoe": 5172,
      "Gemfire": 5173,
      "Gryzor": 5174,
      "Guevar": 5175,
      "GangsPAL": 5176,
      "Gilligan's": 5177,
      "Gourmet": 5178,
      "H.Q.": 5179,
      "Hammerin'": 5180,
      "Hatris": 5181,
      "Haita": 5182,
      "Higemaru": 5183,
      "Hiden": 5184,
      "Hokkaidou": 5185,
      "Hayauchi": 5186,
      "Hogan's": 5187,
      "Hachamec": 5188,
      "Hillsfar": 5189,
      "Hudson": 5190,
      "Hasha": 5191,
      "HostagesJP": 5192,
      "Hood:": 5193,
      "HamaruJP": 5194,
      "Hoppy": 5195,
      "Hattori-kun": 5196,
      "I+II": 5197,
      "Iku!!!": 5198,
      "IkeIke!": 5199,
      "Ishii": 5200,
      "Izumi": 5201,
      "Impossible": 5202,
      "JaJaM": 5203,
      "JJ:": 5204,
      "Jenny": 5205,
      "Jerry": 5206,
      "Janshi": 5207,
      "Jesus:": 5208,
      "Jurassic": 5209,
      "Just": 5210,
      "Jigoku": 5211,
      "JimaJP": 5212,
      "Jirou": 5213,
      "Jogging": 5214,
      "Japan": 5215,
      "Jangou": 5216,
      "Jaws": 5217,
      "Jashinken": 5218,
      "Jordan": 5219,
      "Jyuouki": 5220,
      "Jimmy": 5221,
      "Kaettekita": 5222,
      "Kanketsu": 5223,
      "Kats": 5224,
      "Kakeru": 5225,
      "Komete": 5226,
      "Krion": 5227,
      "Kakutou": 5228,
      "KandouhenJP": 5229,
      "Kimi": 5230,
      "Kumikyoku": 5231,
      "Kraze": 5232,
      "Kekkyoku": 5233,
      "Killer": 5234,
      "Koshien": 5235,
      "Kocchi": 5236,
      "Kakefu": 5237,
      "Krusty's": 5238,
      "KoukonJP": 5239,
      "Kessen!!": 5240,
      "Kachiuma": 5241,
      "LaSal": 5242,
      "L'Empereur": 5243,
      "Link": 5244,
      "Lore": 5245,
      "Lair": 5246,
      "Lagran": 5247,
      "License": 5248,
      "Lose,": 5249,
      "Lum's": 5250,
      "Lemmings": 5251,
      "Layla": 5252,
      "Labyrin": 5253,
      "London": 5254,
      "LickleJP": 5255,
      "Lupin": 5256,
      "Llylg": 5257,
      "Loopz": 5258,
      "Muppet": 5259,
      "McDon": 5260,
      "MVP": 5261,
      "Menu": 5262,
      "Maison": 5263,
      "Mokushiroku": 5264,
      "Midway": 5265,
      "Metsubou": 5266,
      "Manta": 5267,
      "Melville": 5268,
      "Mendel": 5269,
      "Mizushima": 5270,
      "Millipede": 5271,
      "M-Kara": 5272,
      "Nusure": 5273,
      "NBA": 5274,
      "NFL": 5275,
      "Narabe": 5276,
      "Naitou": 5277,
      "Network:": 5278,
      "Ningyo": 5279,
      "Nigel": 5280,
      "Numberland": 5281,
      "Nyuumon": 5282,
      "Nuts": 5283,
      "Negai": 5284,
      "Napole": 5285,
      "Nadia": 5286,
      "Nicklaus'": 5287,
      "NyankiesJP": 5288,
      "Ozaki": 5289,
      "Ohotsuku": 5290,
      "O'Hare": 5291,
      "Owarai": 5292,
      "Oishinbo:": 5293,
      "Operation": 5294,
      "Ochinnit": 5295,
      "Outlanders": 5296,
      "Oekaki": 5297,
      "Oshiete:": 5298,
      "October": 5299,
      "Osomatsu-Kun:": 5300,
      "Psybuster": 5301,
      "Pyokotan": 5302,
      "Presid": 5303,
      "P.O.W": 5304,
      "Patrol": 5305,
      "Peter": 5306,
      "Pandora": 5307,
      "Pero's": 5308,
      "Persia": 5309,
      "Pizza": 5310,
      "Pikahage": 5311,
      "Piano": 5312,
      "Portopia": 5313,
      "Pajama": 5314,
      "Pooyan": 5315,
      "Peepar": 5316,
      "Predator": 5317,
      "Pictionary": 5318,
      "Q*bert": 5319,
      "Rugby": 5320,
      "Rygar": 5321,
      "RPG": 5322,
      "R.B.I.": 5323,
      "Rattle": 5324,
      "Rokudenashi": 5325,
      "Rensa": 5326,
      "Restaurant": 5327,
      "Rosetta": 5328,
      "Rocky": 5329,
      "Ropitt:": 5330,
      "Rekka": 5331,
      "Rabbit": 5332,
      "Royal": 5333,
      "Sqoon": 5334,
      "STED:": 5335,
      "SWAT": 5336,
      "SOS!!": 5337,
      "Sinister": 5338,
      "South": 5339,
      "Samson": 5340,
      "Sasa": 5341,
      "Sacred": 5342,
      "Sandieg": 5343,
      "Silly": 5344,
      "Soukessen:": 5345,
      "Seven": 5346,
      "SaverJP": 5347,
      "Syoubu": 5348,
      "Sakigake!!": 5349,
      "S.C.A.": 5350,
      "Sochhi": 5351,
      "Sousaisen": 5352,
      "TamagoJP": 5353,
      "Tora:": 5354,
      "Tadaima": 5355,
      "Towers": 5356,
      "Tobidase": 5357,
      "Temple": 5358,
      "Tatsujin": 5359,
      "Ted's": 5360,
      "Tashiro": 5361,
      "Taose!": 5362,
      "Tarou:": 5363,
      "Tactics": 5364,
      "Umi": 5365,
      "Ufouri": 5366,
      "Ushio": 5367,
      "Urusei": 5368,
      "Utsurun": 5369,
      "Viper": 5370,
      "Venus": 5371,
      "Vanna": 5372,
      "Visions": 5373,
      "Virus:": 5374,
      "Viva": 5375,
      "Villgust": 5376,
      "Voyager": 5377,
      "Victory": 5378,
      "WCW": 5379,
      "Werewolf": 5380,
      "Wurm:": 5381,
      "Wolverine": 5382,
      "Wrecking": 5383,
      "Wit's": 5384,
      "Wanderers": 5385,
      "Widget": 5386,
      "Willow": 5387,
      "Wedding": 5388,
      "Western": 5389,
      "Xexyz": 5390,
      "Xenophob": 5391,
      "X-Men": 5392,
      "Yajikitat": 5393,
      "Yasashii": 5394,
      "Yakuman": 5395,
      "Yuuden": 5396,
      "Yosou": 5397,
      "Yobu": 5398,
      "Yatsura:": 5399,
      "Yogen:": 5400,
      "Yokoham": 5401,
      "YarouJP": 5402,
      "Young": 5403,
      "Zippy": 5404,
      "Zyuranger": 5405,
      "ZR-1": 5406,
      "Zanac": 5407,
      "Zunou": 5408,
      "Zetsumetsu": 5409,
      "Zoda's": 5410,
      "Zaurus:": 5411,
      "Zouringen": 5412,
      "Z-Gundam": 5413,
      "e-JP": 5414,
      "heno": 5415,
      "thus": 5416,
      "Ōichō": 5417,
      "##tters": 5418,
      "##lifter": 5419,
      "##-Up": 5420,
      "##AUS/": 5421,
      "##4][15]": 5422,
      "##amakun": 5423,
      "##ormers:": 5424,
      "Stinger": 5425,
      "Stimpy": 5426,
      "Stack-Up": 5427,
      "Stoker's": 5428,
      "Stooges": 5429,
      "Strongest": 5430,
      "Stanley:": 5431,
      "Show:": 5432,
      "Shuttle": 5433,
      "Shokatsu": 5434,
      "Shogun": 5435,
      "Shreddin'": 5436,
      "Shopping": 5437,
      "Shoukoushi": 5438,
      "Shankara": 5439,
      "Shatterhand": 5440,
      "Shan-Go": 5441,
      "Choplifter": 5442,
      "Chack'n": 5443,
      "Chubby": 5444,
      "Chronicles": 5445,
      "Spectacular": 5446,
      "Spondylus": 5447,
      "Sprint": 5448,
      "Spider-Man:": 5449,
      "Sukeban": 5450,
      "Sullivan's": 5451,
      "Sugiyuku": 5452,
      "Suikoden:": 5453,
      "Sugoro": 5454,
      "Supokon": 5455,
      "##enstein:": 5456,
      "DragonStrike": 5457,
      "DragonNinjaPAL": 5458,
      "Daisenryaku": 5459,
      "DaishingekiJP": 5460,
      "Daimaou": 5461,
      "Daikaijyu": 5462,
      "Daimeiro": 5463,
      "Dai-2-Ji": 5464,
      "Daitōryō": 5465,
      "Daikoushien": 5466,
      "DaimakyouJP": 5467,
      "Daihyakka": 5468,
      "WarwolfJP": 5469,
      "##chables": 5470,
      "Professional": 5471,
      "Maboroshi": 5472,
      "Majaventure": 5473,
      "Workshop": 5474,
      "WorldRunner": 5475,
      "##eroo$!": 5476,
      "Blodia": 5477,
      "BlazerJP": 5478,
      "QuintyJP": 5479,
      "StargateJP": 5480,
      "Sansei:": 5481,
      "Sanctum": 5482,
      "Sankanou!!JP": 5483,
      "Shissouru": 5484,
      "Shitennō": 5485,
      "Shikinjo": 5486,
      "Shigotojin": 5487,
      "Cliffhanger": 5488,
      "Gun-DecJP": 5489,
      "Gun-Nac": 5490,
      "Gun.Smoke": 5491,
      "GunHed:": 5492,
      "Management": 5493,
      "Meikantoku": 5494,
      "Arctic": 5495,
      "Artelius": 5496,
      "Arkista's": 5497,
      "Sengouku": 5498,
      "Senryaku:": 5499,
      "ShinjinruiJP": 5500,
      "Deppa": 5501,
      "Dezaemon": 5502,
      "De-Block": 5503,
      "Debias": 5504,
      "Deburasu": 5505,
      "ForcesPAL": 5506,
      "TenguJP": 5507,
      "Ballblazer": 5508,
      "Castelian": 5509,
      "Teyandee": 5510,
      "MahaRaja": 5511,
      "Gojūsan-tsu": 5512,
      "Gozonji": 5513,
      "Kyofu": 5514,
      "Kyōshū!": 5515,
      "Chiyonofuji": 5516,
      "Jikūreki": 5517,
      "Conspiracy:": 5518,
      "Concentration": 5519,
      "Intruder": 5520,
      "Infiltrator": 5521,
      "Moeru!": 5522,
      "Moe-Pro!": 5523,
      "PacificFR": 5524,
      "Anticipation": 5525,
      "Platoon": 5526,
      "Robocco": 5527,
      "Robowarrior": 5528,
      "Saiyūki:": 5529,
      "SaizouJP": 5530,
      "Turrican": 5531,
      "Buckeroo$!": 5532,
      "Bullwinkle": 5533,
      "Hyrule": 5534,
      "Hyoutan": 5535,
      "Hyakkiyakou": 5536,
      "Kenzan!": 5537,
      "Kenbunku": 5538,
      "Kaizokusen": 5539,
      "Rocketeer": 5540,
      "RockBoard:": 5541,
      "Golf-kko": 5542,
      "Gekimaden": 5543,
      "Flipull": 5544,
      "MetaFightJP": 5545,
      "Onyanko": 5546,
      "OniisanJP": 5547,
      "OngaeshiJP": 5548,
      "SolbrainJP": 5549,
      "Thrilla's": 5550,
      "Transformers:": 5551,
      "Tataki!!": 5552,
      "Legend...JP": 5553,
      "Kiroku!": 5554,
      "MyououdenJP": 5555,
      "Scavenger": 5556,
      "Seimeitai": 5557,
      "ShoutaijouJP": 5558,
      "Dosukoi": 5559,
      "Gyruss": 5560,
      "Gyromite": 5561,
      "Grounds": 5562,
      "GenesisJP": 5563,
      "Paradise": 5564,
      "Paris-Dakar": 5565,
      "Tsuruseko": 5566,
      "NewZealand": 5567,
      "Fuzzical": 5568,
      "Gannenhan": 5569,
      "GalagaJP/PAL": 5570,
      "Michael": 5571,
      "Untouchables": 5572,
      "Uncanny": 5573,
      "Uninvited": 5574,
      "Uncharted": 5575,
      "Mindseeker": 5576,
      "Minkiimomo": 5577,
      "Pugsley's": 5578,
      "SeoulJP": 5579,
      "Sekiryuou": 5580,
      "Be-Bop": 5581,
      "Beauty": 5582,
      "Beetlejuice": 5583,
      "Bombliss": 5584,
      "Dynowarz:": 5585,
      "DynablasterPAL": 5586,
      "Embassy": 5587,
      "Elway's": 5588,
      "ElrondJP": 5589,
      "Honshougi:": 5590,
      "Kagaku[12]": 5591,
      "RoadBlasters": 5592,
      "Snoopy's": 5593,
      "Volguard": 5594,
      "Zenebasu": 5595,
      "Zenbei!!": 5596,
      "ZenkokubanJP": 5597,
      "Chou-Wakusei": 5598,
      "Akuma-kun:": 5599,
      "Badminton": 5600,
      "F-117A": 5601,
      "HeberekeJP": 5602,
      "Hakken-Den": 5603,
      "Niyottete": 5604,
      "Surprise": 5605,
      "Trevino's": 5606,
      "Thunderbirds": 5607,
      "Asylum": 5608,
      "Asmik-kun": 5609,
      "Abadox:": 5610,
      "Astyanax": 5611,
      "Guerrilla": 5612,
      "Glove": 5613,
      "Globetrotters": 5614,
      "Gladiators": 5615,
      "Keroriinu": 5616,
      "Opa-Opa": 5617,
      "Obocchamakun": 5618,
      "Skyhawk": 5619,
      "ValhallaJP": 5620,
      "Eggsplode!": 5621,
      "Frankenstein:": 5622,
      "Fratelli": 5623,
      "Hottāman": 5624,
      "Hototogisu": 5625,
      "Ironsword:": 5626,
      "Koufuku": 5627,
      "Masuzoe": 5628,
      "Makai-MuraJP": 5629,
      "Naguuru": 5630,
      "Nishiouendan": 5631,
      "Ryuu-Ou-Sen": 5632,
      "Radioactive": 5633,
      "Target:": 5634,
      "Tokoro-san": 5635,
      "Tabibito": 5636,
      "Yūenchi:": 5637,
      "YōkosoJP": 5638,
      "Stewart's": 5639,
      "Armadillo": 5640,
      "Armageddon": 5641,
      "(Ge)[13][14][15]": 5642,
      "BurgerTime": 5643,
      "Bazook:": 5644,
      "BazolderJP": 5645,
      "Epsilon": 5646,
      "Featuring": 5647,
      "Gargoyle's": 5648,
      "Hououhen:": 5649,
      "Immortal": 5650,
      "Jarin-Ko": 5651,
      "Kinnikuman:": 5652,
      "Livingston": 5653,
      "Mousecapade": 5654,
      "NASCAR": 5655,
      "Orb-3D": 5656,
      "RodLandJP": 5657,
      "Syndrome": 5658,
      "Tonjan!?": 5659,
      "Tiger-Heli": 5660,
      "Uchūsen:": 5661,
      "Xevious:": 5662,
      "Splatterhouse:": 5663,
      "International": 5664,
      "Intergalactic": 5665,
      "Mississippi": 5666,
      "Totsuzen!": 5667,
      "2100-Nen": 5668,
      "Aigiina": 5669,
      "Dokuganryu": 5670,
      "Elliott's": 5671,
      "Faxanadu": 5672,
      "GryzorAUS/": 5673,
      "GuevaraJP": 5674,
      "Hachamecha": 5675,
      "JaJaMaru-kun": 5676,
      "JashinkenJP": 5677,
      "KumikyokuJP": 5678,
      "LaSalle": 5679,
      "Lagrange": 5680,
      "Labyrinth": 5681,
      "Llylgamyn": 5682,
      "McDonaldlandPAL": 5683,
      "Nusure!": 5684,
      "Napoleon": 5685,
      "Ochinnitoshi": 5686,
      "PsybusterJP": 5687,
      "President": 5688,
      "P.O.W.:": 5689,
      "SWAT:": 5690,
      "Sandiego?": 5691,
      "S.C.A.T.:": 5692,
      "Ufouria:": 5693,
      "Werewolf:": 5694,
      "Xenophobe": 5695,
      "Yajikitatin": 5696,
      "Yokohamakou": 5697,
      "Z-Gundam:": 5698,
      "Gojūsan-tsugi": 5699,
      "GryzorAUS/EU": 5700
    }
  }
}